[BOS]
[EOS]
[PAD]
[CLS]
[SEP]
[MASK]
[UNK]
[UNK0]
[UNK1]
[UNK2]
[UNK3]
[UNK4]
[UNK5]
[UNK6]
[UNK7]
[UNK8]
[UNK9]
<S>
<T>
[unused0]
[unused1]
[unused2]
[unused3]
[unused4]
[unused5]
[unused6]
[unused7]
[unused8]
[unused9]
[unused10]
[unused11]
[unused12]
[unused13]
[unused14]
[unused15]
[unused16]
[unused17]
[unused18]
[unused19]
[unused20]
[unused21]
[unused22]
[unused23]
[unused24]
[unused25]
[unused26]
[unused27]
[unused28]
[unused29]
[unused30]
[unused31]
[unused32]
[unused33]
[unused34]
[unused35]
[unused36]
[unused37]
[unused38]
[unused39]
[unused40]
[unused41]
[unused42]
[unused43]
[unused44]
[unused45]
[unused46]
[unused47]
[unused48]
[unused49]
[unused50]
[unused51]
[unused52]
[unused53]
[unused54]
[unused55]
[unused56]
[unused57]
[unused58]
[unused59]
[unused60]
[unused61]
[unused62]
[unused63]
[unused64]
[unused65]
[unused66]
[unused67]
[unused68]
[unused69]
[unused70]
[unused71]
[unused72]
[unused73]
[unused74]
[unused75]
[unused76]
[unused77]
[unused78]
[unused79]
[unused80]
[unused81]
[unused82]
[unused83]
[unused84]
[unused85]
[unused86]
[unused87]
[unused88]
[unused89]
[unused90]
[unused91]
[unused92]
[unused93]
[unused94]
[unused95]
[unused96]
[unused97]
[unused98]
[unused99]
[unused100]
[unused101]
[unused102]
[unused103]
[unused104]
[unused105]
[unused106]
[unused107]
[unused108]
[unused109]
[unused110]
[unused111]
[unused112]
[unused113]
[unused114]
[unused115]
[unused116]
[unused117]
[unused118]
[unused119]
[unused120]
[unused121]
[unused122]
[unused123]
[unused124]
[unused125]
[unused126]
[unused127]
[unused128]
[unused129]
[unused130]
[unused131]
[unused132]
[unused133]
[unused134]
[unused135]
[unused136]
[unused137]
[unused138]
[unused139]
[unused140]
[unused141]
[unused142]
[unused143]
[unused144]
[unused145]
[unused146]
[unused147]
[unused148]
[unused149]
[unused150]
[unused151]
[unused152]
[unused153]
[unused154]
[unused155]
[unused156]
[unused157]
[unused158]
[unused159]
[unused160]
[unused161]
[unused162]
[unused163]
[unused164]
[unused165]
[unused166]
[unused167]
[unused168]
[unused169]
[unused170]
[unused171]
[unused172]
[unused173]
[unused174]
[unused175]
[unused176]
[unused177]
[unused178]
[unused179]
[unused180]
[unused181]
[unused182]
[unused183]
[unused184]
[unused185]
[unused186]
[unused187]
[unused188]
[unused189]
[unused190]
[unused191]
[unused192]
[unused193]
[unused194]
[unused195]
[unused196]
[unused197]
[unused198]
[unused199]
[unused200]
[unused201]
[unused202]
[unused203]
[unused204]
[unused205]
[unused206]
[unused207]
[unused208]
[unused209]
[unused210]
[unused211]
[unused212]
[unused213]
[unused214]
[unused215]
[unused216]
[unused217]
[unused218]
[unused219]
[unused220]
[unused221]
[unused222]
[unused223]
[unused224]
[unused225]
[unused226]
[unused227]
[unused228]
[unused229]
[unused230]
[unused231]
[unused232]
[unused233]
[unused234]
[unused235]
[unused236]
[unused237]
[unused238]
[unused239]
[unused240]
[unused241]
[unused242]
[unused243]
[unused244]
[unused245]
[unused246]
[unused247]
[unused248]
[unused249]
[unused250]
[unused251]
[unused252]
[unused253]
[unused254]
[unused255]
[unused256]
[unused257]
[unused258]
[unused259]
[unused260]
[unused261]
[unused262]
[unused263]
[unused264]
[unused265]
[unused266]
[unused267]
[unused268]
[unused269]
[unused270]
[unused271]
[unused272]
[unused273]
[unused274]
[unused275]
[unused276]
[unused277]
[unused278]
[unused279]
[unused280]
[unused281]
[unused282]
[unused283]
[unused284]
[unused285]
[unused286]
[unused287]
[unused288]
[unused289]
[unused290]
[unused291]
[unused292]
[unused293]
[unused294]
[unused295]
[unused296]
[unused297]
[unused298]
[unused299]
[unused300]
[unused301]
[unused302]
[unused303]
[unused304]
[unused305]
[unused306]
[unused307]
[unused308]
[unused309]
[unused310]
[unused311]
[unused312]
[unused313]
[unused314]
[unused315]
[unused316]
[unused317]
[unused318]
[unused319]
[unused320]
[unused321]
[unused322]
[unused323]
[unused324]
[unused325]
[unused326]
[unused327]
[unused328]
[unused329]
[unused330]
[unused331]
[unused332]
[unused333]
[unused334]
[unused335]
[unused336]
[unused337]
[unused338]
[unused339]
[unused340]
[unused341]
[unused342]
[unused343]
[unused344]
[unused345]
[unused346]
[unused347]
[unused348]
[unused349]
[unused350]
[unused351]
[unused352]
[unused353]
[unused354]
[unused355]
[unused356]
[unused357]
[unused358]
[unused359]
[unused360]
[unused361]
[unused362]
[unused363]
[unused364]
[unused365]
[unused366]
[unused367]
[unused368]
[unused369]
[unused370]
[unused371]
[unused372]
[unused373]
[unused374]
[unused375]
[unused376]
[unused377]
[unused378]
[unused379]
[unused380]
[unused381]
[unused382]
[unused383]
[unused384]
[unused385]
[unused386]
[unused387]
[unused388]
[unused389]
[unused390]
[unused391]
[unused392]
[unused393]
[unused394]
[unused395]
[unused396]
[unused397]
[unused398]
[unused399]
[unused400]
[unused401]
[unused402]
[unused403]
[unused404]
[unused405]
[unused406]
[unused407]
[unused408]
[unused409]
[unused410]
[unused411]
[unused412]
[unused413]
[unused414]
[unused415]
[unused416]
[unused417]
[unused418]
[unused419]
[unused420]
[unused421]
[unused422]
[unused423]
[unused424]
[unused425]
[unused426]
[unused427]
[unused428]
[unused429]
[unused430]
[unused431]
[unused432]
[unused433]
[unused434]
[unused435]
[unused436]
[unused437]
[unused438]
[unused439]
[unused440]
[unused441]
[unused442]
[unused443]
[unused444]
[unused445]
[unused446]
[unused447]
[unused448]
[unused449]
[unused450]
[unused451]
[unused452]
[unused453]
[unused454]
[unused455]
[unused456]
[unused457]
[unused458]
[unused459]
[unused460]
[unused461]
[unused462]
[unused463]
[unused464]
[unused465]
[unused466]
[unused467]
[unused468]
[unused469]
[unused470]
[unused471]
[unused472]
[unused473]
[unused474]
[unused475]
[unused476]
[unused477]
[unused478]
[unused479]
[unused480]
[unused481]
[unused482]
[unused483]
[unused484]
[unused485]
[unused486]
[unused487]
[unused488]
[unused489]
[unused490]
[unused491]
[unused492]
[unused493]
[unused494]
[unused495]
[unused496]
[unused497]
[unused498]
[unused499]
[unused500]
[unused501]
[unused502]
[unused503]
[unused504]
[unused505]
[unused506]
[unused507]
[unused508]
[unused509]
[unused510]
[unused511]
[unused512]
[unused513]
[unused514]
[unused515]
[unused516]
[unused517]
[unused518]
[unused519]
[unused520]
[unused521]
[unused522]
[unused523]
[unused524]
[unused525]
[unused526]
[unused527]
[unused528]
[unused529]
[unused530]
[unused531]
[unused532]
[unused533]
[unused534]
[unused535]
[unused536]
[unused537]
[unused538]
[unused539]
[unused540]
[unused541]
[unused542]
[unused543]
[unused544]
[unused545]
[unused546]
[unused547]
[unused548]
[unused549]
[unused550]
[unused551]
[unused552]
[unused553]
[unused554]
[unused555]
[unused556]
[unused557]
[unused558]
[unused559]
[unused560]
[unused561]
[unused562]
[unused563]
[unused564]
[unused565]
[unused566]
[unused567]
[unused568]
[unused569]
[unused570]
[unused571]
[unused572]
[unused573]
[unused574]
[unused575]
[unused576]
[unused577]
[unused578]
[unused579]
[unused580]
[unused581]
[unused582]
[unused583]
[unused584]
[unused585]
[unused586]
[unused587]
[unused588]
[unused589]
[unused590]
[unused591]
[unused592]
[unused593]
[unused594]
[unused595]
[unused596]
[unused597]
[unused598]
[unused599]
[unused600]
[unused601]
[unused602]
[unused603]
[unused604]
[unused605]
[unused606]
[unused607]
[unused608]
[unused609]
[unused610]
[unused611]
[unused612]
[unused613]
[unused614]
[unused615]
[unused616]
[unused617]
[unused618]
[unused619]
[unused620]
[unused621]
[unused622]
[unused623]
[unused624]
[unused625]
[unused626]
[unused627]
[unused628]
[unused629]
[unused630]
[unused631]
[unused632]
[unused633]
[unused634]
[unused635]
[unused636]
[unused637]
[unused638]
[unused639]
[unused640]
[unused641]
[unused642]
[unused643]
[unused644]
[unused645]
[unused646]
[unused647]
[unused648]
[unused649]
[unused650]
[unused651]
[unused652]
[unused653]
[unused654]
[unused655]
[unused656]
[unused657]
[unused658]
[unused659]
[unused660]
[unused661]
[unused662]
[unused663]
[unused664]
[unused665]
[unused666]
[unused667]
[unused668]
[unused669]
[unused670]
[unused671]
[unused672]
[unused673]
[unused674]
[unused675]
[unused676]
[unused677]
[unused678]
[unused679]
[unused680]
[unused681]
[unused682]
[unused683]
[unused684]
[unused685]
[unused686]
[unused687]
[unused688]
[unused689]
[unused690]
[unused691]
[unused692]
[unused693]
[unused694]
[unused695]
[unused696]
[unused697]
[unused698]
[unused699]
[unused700]
[unused701]
[unused702]
[unused703]
[unused704]
[unused705]
[unused706]
[unused707]
[unused708]
[unused709]
[unused710]
[unused711]
[unused712]
[unused713]
[unused714]
[unused715]
[unused716]
[unused717]
[unused718]
[unused719]
[unused720]
[unused721]
[unused722]
[unused723]
[unused724]
[unused725]
[unused726]
[unused727]
[unused728]
[unused729]
[unused730]
[unused731]
[unused732]
[unused733]
[unused734]
[unused735]
[unused736]
[unused737]
[unused738]
[unused739]
[unused740]
[unused741]
[unused742]
[unused743]
[unused744]
[unused745]
[unused746]
[unused747]
[unused748]
[unused749]
[unused750]
[unused751]
[unused752]
[unused753]
[unused754]
[unused755]
[unused756]
[unused757]
[unused758]
[unused759]
[unused760]
[unused761]
[unused762]
[unused763]
[unused764]
[unused765]
[unused766]
[unused767]
[unused768]
[unused769]
[unused770]
[unused771]
[unused772]
[unused773]
[unused774]
[unused775]
[unused776]
[unused777]
[unused778]
[unused779]
[unused780]
[unused781]
[unused782]
[unused783]
[unused784]
[unused785]
[unused786]
[unused787]
[unused788]
[unused789]
[unused790]
[unused791]
[unused792]
[unused793]
[unused794]
[unused795]
[unused796]
[unused797]
[unused798]
[unused799]
[unused800]
[unused801]
[unused802]
[unused803]
[unused804]
[unused805]
[unused806]
[unused807]
[unused808]
[unused809]
[unused810]
[unused811]
[unused812]
[unused813]
[unused814]
[unused815]
[unused816]
[unused817]
[unused818]
[unused819]
[unused820]
[unused821]
[unused822]
[unused823]
[unused824]
[unused825]
[unused826]
[unused827]
[unused828]
[unused829]
[unused830]
[unused831]
[unused832]
[unused833]
[unused834]
[unused835]
[unused836]
[unused837]
[unused838]
[unused839]
[unused840]
[unused841]
[unused842]
[unused843]
[unused844]
[unused845]
[unused846]
[unused847]
[unused848]
[unused849]
[unused850]
[unused851]
[unused852]
[unused853]
[unused854]
[unused855]
[unused856]
[unused857]
[unused858]
[unused859]
[unused860]
[unused861]
[unused862]
[unused863]
[unused864]
[unused865]
[unused866]
[unused867]
[unused868]
[unused869]
[unused870]
[unused871]
[unused872]
[unused873]
[unused874]
[unused875]
[unused876]
[unused877]
[unused878]
[unused879]
[unused880]
[unused881]
[unused882]
[unused883]
[unused884]
[unused885]
[unused886]
[unused887]
[unused888]
[unused889]
[unused890]
[unused891]
[unused892]
[unused893]
[unused894]
[unused895]
[unused896]
[unused897]
[unused898]
[unused899]
[unused900]
[unused901]
[unused902]
[unused903]
[unused904]
[unused905]
[unused906]
[unused907]
[unused908]
[unused909]
[unused910]
[unused911]
[unused912]
[unused913]
[unused914]
[unused915]
[unused916]
[unused917]
[unused918]
[unused919]
[unused920]
[unused921]
[unused922]
[unused923]
[unused924]
[unused925]
[unused926]
[unused927]
[unused928]
[unused929]
[unused930]
[unused931]
[unused932]
[unused933]
[unused934]
[unused935]
[unused936]
[unused937]
[unused938]
[unused939]
[unused940]
[unused941]
[unused942]
[unused943]
[unused944]
[unused945]
[unused946]
[unused947]
[unused948]
[unused949]
[unused950]
[unused951]
[unused952]
[unused953]
[unused954]
[unused955]
[unused956]
[unused957]
[unused958]
[unused959]
[unused960]
[unused961]
[unused962]
[unused963]
[unused964]
[unused965]
[unused966]
[unused967]
[unused968]
[unused969]
[unused970]
[unused971]
[unused972]
[unused973]
[unused974]
[unused975]
[unused976]
[unused977]
[unused978]
[unused979]
[unused980]
[unused981]
[unused982]
[unused983]
[unused984]
[unused985]
[unused986]
[unused987]
[unused988]
[unused989]
[unused990]
[unused991]
[unused992]
[unused993]
[unused994]
,
.
0
1
2
3
4
5
6
7
8
9
A
B
C
D
E
F
G
H
I
J
K
L
M
N
O
P
Q
R
S
T
U
V
W
X
Y
Z
a
b
c
d
e
f
g
h
i
j
k
l
m
n
o
p
q
r
s
t
u
v
w
x
y
z
ㄱ
ㄲ
ㄳ
ㄴ
ㄷ
ㄸ
ㄹ
ㅁ
ㅂ
ㅃ
ㅅ
ㅆ
ㅇ
ㅈ
ㅉ
ㅊ
ㅋ
ㅌ
ㅍ
ㅎ
ㅏ
ㅐ
ㅑ
ㅓ
ㅔ
ㅕ
ㅗ
ㅛ
ㅜ
ㅠ
ㅡ
ㅢ
ㅣ
가
각
갂
간
갇
갈
갉
갊
감
갑
값
갓
갔
강
갖
갗
갘
같
갚
갛
개
객
갠
갤
갬
갭
갯
갰
갱
갲
갸
갹
갼
걀
걈
걍
걑
걔
걘
걜
걥
거
걱
건
걷
걸
걺
검
겁
것
겄
겅
겆
겉
겊
겋
게
겍
겐
겓
겔
겜
겝
겟
겠
겡
겤
겧
겨
격
겪
견
겯
결
겸
겹
겻
겼
경
곁
계
곈
곌
곕
곗
곘
고
곡
곤
곧
골
곪
곫
곬
곯
곰
곱
곳
공
곶
곹
곺
과
곽
관
괄
괌
괍
괏
광
괘
괜
괞
괠
괩
괭
괴
괵
괸
괼
굄
굅
굇
굉
교
굑
굔
굘
굡
굣
굥
구
국
군
굳
굴
굵
굶
굻
굼
굽
굿
궁
궂
궃
궇
궈
궉
권
궐
궜
궝
궤
궬
궵
궷
귀
귁
귄
귈
귐
귑
귓
규
귝
균
귤
귬
귭
귱
그
극
근
귾
귿
글
긁
긂
긇
금
급
긋
긍
긎
긑
긔
긜
긤
기
긱
긴
긷
길
긺
김
깁
깃
깄
깅
깆
깇
깉
깊
까
깍
깎
깐
깔
깕
깜
깝
깟
깠
깡
깢
깥
깦
깨
깩
깬
깰
깸
깹
깻
깼
깽
꺁
꺄
꺅
꺌
꺠
꺳
꺼
꺽
꺾
껀
껄
껌
껍
껏
껐
껑
껕
께
껜
껨
껩
껫
껬
껭
껴
껵
껸
껼
꼄
꼇
꼈
꼍
꼐
꼬
꼭
꼰
꼴
꼼
꼽
꼿
꽁
꽂
꽃
꽅
꽈
꽉
꽌
꽐
꽙
꽜
꽝
꽤
꽥
꽹
꾀
꾄
꾈
꾐
꾑
꾕
꾜
꾳
꾸
꾹
꾼
꾿
꿀
꿇
꿈
꿉
꿋
꿍
꿎
꿏
꿔
꿘
꿜
꿧
꿨
꿩
꿰
꿴
꿸
뀀
뀁
뀄
뀌
뀐
뀔
뀜
뀝
뀠
뀡
뀨
뀰
끄
끅
끈
끊
끌
끍
끓
끔
끕
끗
끙
끛
끝
끟
끼
끽
낀
낄
낋
낌
낍
낏
낐
낑
낒
나
낙
낚
난
낞
낟
날
낡
낢
남
납
낫
났
낭
낮
낯
낱
낳
내
낵
낸
낻
낼
냄
냅
냇
냈
냉
냐
냑
냔
냘
냠
냡
냣
냥
냬
냰
냽
냿
넀
너
넉
넋
넌
넎
넏
널
넒
넓
넖
넗
넘
넙
넛
넜
넝
넞
넢
넣
네
넥
넨
넬
넴
넵
넷
넸
넹
넼
넿
녀
녁
년
녈
념
녑
녓
녔
녕
녘
녜
녠
녰
노
녹
논
놀
놃
놈
놉
놋
놌
농
높
놓
놔
놘
놜
놧
놨
뇄
뇌
뇐
뇔
뇜
뇝
뇨
뇩
뇬
뇰
뇹
뇻
뇽
누
눅
눈
눌
눔
눕
눗
눙
눚
눝
눞
눟
눠
눤
눴
눼
뉘
뉜
뉠
뉨
뉩
뉴
뉵
뉸
뉼
늄
늅
늉
느
늑
는
늕
늗
늘
늙
늚
늛
늠
늡
늣
능
늦
늧
늨
늪
늫
늬
늰
늴
늽
니
닉
닊
닌
닏
닐
님
닙
닛
닜
닝
닢
다
닥
닦
닧
단
닫
달
닭
닮
닯
닲
닳
담
답
닷
닸
당
닺
닻
닼
닽
닾
닿
대
댁
댄
댇
댈
댐
댑
댓
댔
댕
댚
댜
댠
댱
댸
더
덕
덖
던
덛
덜
덞
덟
덣
덤
덥
덧
덨
덩
덫
덮
덯
데
덱
덴
덷
델
뎀
뎁
뎃
뎄
뎅
뎊
뎋
뎌
뎍
뎐
뎔
뎗
뎝
뎠
뎡
뎨
도
독
돈
돋
돌
돎
돐
돔
돕
돗
돘
동
돛
돝
돞
돟
돠
돤
돨
돰
돱
돴
돼
됀
됄
됌
됍
됏
됐
됑
되
됙
된
될
됨
됩
됫
됬
됭
됮
됰
됴
둅
둉
두
둑
둔
둘
둠
둡
둣
둥
둬
둰
둿
뒀
뒈
뒤
뒨
뒬
뒵
뒷
뒸
뒹
듀
듄
듈
듐
듑
듕
드
득
든
듣
들
듦
듧
듬
듭
듯
등
듸
딀
디
딕
딘
딛
딜
딤
딥
딧
딨
딩
딪
딫
따
딱
딲
딴
딸
땀
땁
땃
땄
땅
땋
때
땍
땐
땔
땜
땝
땟
땠
땡
땥
땨
떄
떈
떔
떘
떙
떠
떡
떢
떤
떧
떨
떪
떫
떯
떰
떱
떳
떴
떵
떻
떼
떽
뗀
뗄
뗌
뗍
뗏
뗐
뗑
뗘
뗜
뗬
뗴
뗵
뗼
똉
또
똑
똔
똘
똠
똡
똣
똥
똦
똬
똭
뙇
뙈
뙜
뙤
뙨
뙬
뚜
뚝
뚠
뚤
뚧
뚫
뚬
뚭
뚱
뚸
뛌
뛰
뛴
뛸
뜀
뜁
뜌
뜜
뜡
뜨
뜩
뜬
뜯
뜰
뜳
뜷
뜸
뜹
뜻
뜽
띁
띃
띄
띈
띌
띔
띕
띠
띡
띤
띨
띰
띱
띳
띵
라
락
란
랂
랃
랄
람
랍
랏
랐
랑
랒
랔
랖
랗
래
랙
랜
랠
램
랩
랫
랬
랭
랰
랲
랳
랴
략
랸
럄
럅
럇
럈
량
럐
럤
러
럭
런
럲
럴
럼
럽
럿
렀
렁
렂
렄
렇
레
렉
렌
렐
렘
렙
렛
렜
렝
려
력
련
렬
렴
렵
렷
렸
령
렿
례
롄
롈
롑
롓
롔
로
록
론
롣
롤
롬
롭
롯
롱
롷
롸
롹
롼
뢀
뢌
뢔
뢨
뢰
뢴
뢸
룁
룃
룄
료
룍
룐
룔
룝
룟
룡
루
룩
룬
룰
룸
룹
룻
룽
뤃
뤄
뤈
뤗
뤘
뤙
뤠
뤼
뤽
륀
륄
륏
륑
류
륙
륜
률
륨
륩
륭
르
륵
른
륻
를
름
릅
릇
릉
릌
릍
릎
릏
릐
릘
릠
리
릭
린
릳
릴
릵
림
립
릿
맀
링
맂
맆
맇
마
막
만
많
맏
말
맑
맒
맗
맘
맙
맛
맜
망
맞
맟
맡
맣
매
맥
맨
맬
맴
맵
맷
맸
맹
맺
맻
맽
먀
먁
먄
먆
먈
먕
먖
먗
먜
머
먹
먼
먿
멀
멈
멉
멊
멋
멍
멎
멏
멓
메
멕
멘
멜
멤
멥
멧
멨
멩
멪
멫
멬
며
멱
면
멸
몀
몁
몃
몄
명
몆
몇
몌
몐
몣
모
목
몫
몬
몰
몲
몸
몹
못
몽
뫄
뫘
뫙
뫠
뫼
묀
묄
묌
묏
묘
묙
묜
묠
묩
묫
묭
무
묵
묶
문
묻
물
묽
묾
묿
뭄
뭅
뭇
뭉
뭍
뭏
뭐
뭔
뭘
뭠
뭡
뭣
뭥
뭬
뮈
뮌
뮐
뮙
뮤
뮨
뮬
뮴
뮹
므
믁
믄
믈
믐
믑
믓
믕
믜
믠
미
믹
민
믾
믿
밀
밈
밉
밋
밌
밍
밎
및
밑
바
박
밖
밗
반
밚
받
발
밝
밞
밟
밤
밥
밧
밨
방
밭
배
백
밲
밳
밴
밸
뱀
뱁
뱃
뱄
뱅
뱉
뱌
뱍
뱎
뱐
뱓
뱔
뱡
버
벅
번
벋
벌
벍
범
법
벗
벘
벙
벚
벛
벟
베
벡
벢
벤
벧
벨
벰
벱
벳
벴
벵
벹
벼
벽
변
볃
별
볌
볍
볏
볐
병
볓
볕
볘
볜
보
복
볶
본
볻
볼
봄
봅
봇
봈
봉
봊
봍
봏
봐
봑
봔
봘
봡
봣
봤
봥
봬
봰
봴
봽
뵀
뵈
뵌
뵐
뵘
뵙
뵜
뵝
뵞
뵤
뵬
뵹
부
북
분
붇
불
붉
붏
붐
붑
붓
붕
붙
붜
붝
붤
붰
붱
붸
붹
뷁
뷔
뷘
뷜
뷥
뷧
뷰
뷱
뷴
뷸
븀
븁
븃
븅
브
븍
븐
븓
블
븕
븜
븝
븟
븠
븨
비
빅
빈
빋
빌
빔
빕
빗
빘
빙
빚
빛
빜
빝
빟
빠
빡
빢
빤
빧
빨
빪
빰
빱
빳
빴
빵
빻
빼
빽
뺀
뺄
뺌
뺍
뺏
뺐
뺑
뺘
뺨
뺴
뺵
뺼
뻐
뻑
뻔
뻗
뻘
뻠
뻡
뻣
뻤
뻥
뻩
뻬
뻭
뻴
뻿
뼁
뼈
뼉
뼌
뼐
뼘
뼙
뼛
뼜
뼝
뼤
뽀
뽁
뽂
뽄
뽈
뽐
뽑
뽕
뽜
뽝
뽠
뾰
뾱
뾴
뿅
뿌
뿍
뿐
뿔
뿕
뿜
뿝
뿟
뿡
쀄
쀠
쀼
쁑
쁘
쁙
쁜
쁠
쁨
쁩
쁬
쁭
삉
삐
삑
삔
삘
삠
삡
삣
삤
삥
삧
사
삭
삮
삯
산
삲
삳
살
삵
삶
삷
삻
삼
삽
삿
샀
상
샃
샅
샆
새
색
샊
샌
샐
샘
샙
샛
샜
생
샤
샥
샨
샬
샴
샵
샷
샸
샹
샾
섀
섁
섄
섈
섕
서
석
섞
선
섣
설
섥
섦
섧
섬
섭
섯
섰
성
섴
섶
세
섹
센
셀
셈
셉
셋
셌
셍
셒
셔
셕
션
셜
셤
셥
셧
셨
셩
셰
셱
셴
셸
솁
솃
솅
솊
소
속
솎
손
솑
솓
솔
솜
솝
솟
송
솢
솥
솧
솨
솩
솬
솰
솸
솽
쇄
쇈
쇌
쇗
쇘
쇠
쇡
쇤
쇨
쇱
쇳
쇴
쇵
쇼
쇽
숀
숄
숍
숏
숑
숖
수
숙
순
숟
술
숨
숩
숫
숭
숯
숱
숲
숴
숼
쉅
쉈
쉐
쉑
쉔
쉘
쉡
쉣
쉥
쉪
쉬
쉭
쉰
쉴
쉼
쉽
쉿
슁
슈
슉
슌
슐
슘
슙
슛
슝
슠
스
슥
슦
슨
슫
슬
슭
슴
습
슷
슸
승
슺
슽
슾
슿
싀
싄
싑
시
식
신
싣
실
싪
싫
심
십
싮
싯
싰
싱
싳
싴
싵
싶
싷
싸
싹
싼
쌀
쌂
쌈
쌉
쌋
쌌
쌍
쌓
쌔
쌕
쌘
쌜
쌤
쌥
쌨
쌩
쌰
쌱
쌴
썁
썅
썡
써
썩
썪
썬
썰
썸
썹
썻
썼
썽
쎃
쎄
쎅
쎈
쎌
쎔
쎕
쎗
쎘
쎙
쎠
쎤
쎴
쎼
쏀
쏏
쏘
쏙
쏜
쏟
쏠
쏨
쏩
쏫
쏬
쏭
쏴
쏵
쏸
쏼
쐇
쐈
쐐
쐘
쐤
쐬
쐰
쐴
쐿
쑀
쑈
쑉
쑌
쑙
쑝
쑤
쑥
쑨
쑬
쑴
쑵
쑹
쒀
쒔
쒜
쒝
쒯
쒸
쒼
쓔
쓕
쓥
쓩
쓰
쓱
쓴
쓸
씀
씁
씃
씄
씅
씌
씐
씔
씨
씩
씬
씰
씸
씹
씻
씼
씽
아
악
앆
안
앉
않
앋
알
앍
앎
앏
앐
앓
암
압
앖
앗
았
앙
앚
앜
앝
앞
앟
애
액
앤
앨
앰
앱
앳
앴
앵
야
약
얀
얃
얄
얅
얆
얇
얌
얍
얏
얐
양
얒
얔
얕
얖
얗
얘
얙
얜
얠
얩
얫
얬
얭
어
억
얶
얷
언
얹
얺
얻
얼
얽
얾
얿
엄
업
없
엇
었
엉
엊
엌
엎
에
엑
엔
엘
엠
엡
엣
엤
엥
엪
여
역
엮
연
열
엶
엷
엻
염
엽
엾
엿
였
영
옄
옅
옆
옇
예
옌
옐
옘
옙
옛
옜
옝
오
옥
온
올
옭
옮
옱
옳
옴
옵
옶
옷
옸
옹
옺
옻
옾
옿
와
왁
완
왇
왈
왐
왑
왓
왔
왕
왘
왜
왝
왠
왤
왬
왭
왯
왰
왱
외
왹
왼
욀
욉
욋
욌
욍
욎
요
욕
욘
욜
욤
욥
욧
용
욪
욬
욭
욮
욯
우
욱
운
울
욹
욺
움
웁
웃
웅
워
웍
웎
원
월
웘
웜
웝
웟
웠
웡
웤
웥
웨
웩
웬
웯
웰
웸
웹
웻
웽
윁
위
윅
윈
윋
윌
윔
윕
윗
윙
유
육
윤
율
윰
윱
윳
융
윷
으
윽
은
읁
읃
을
읊
읋
음
읍
읎
읏
읐
응
읒
읓
읔
읕
읖
읗
의
읜
읠
읨
읩
읭
읰
이
익
인
읹
읺
읻
일
읽
읾
잃
임
입
잇
있
잉
잊
잌
잍
잎
잏
자
작
잔
잖
잘
잚
잛
잟
잠
잡
잣
잤
장
잦
잨
잪
잫
재
잭
잰
잴
잼
잽
잿
쟀
쟁
쟈
쟉
쟌
쟎
쟐
쟝
쟤
쟨
쟬
저
적
전
젇
절
젊
젋
젏
점
접
젓
젔
정
젖
젚
제
젝
젠
젤
젬
젭
젯
젱
젶
져
젹
젼
졀
졈
졉
졋
졌
졍
졔
조
족
존
졸
좀
좁
좃
종
좆
좇
좋
좌
좍
좐
좔
좝
좡
좨
좼
좽
죄
죈
죌
죔
죕
죗
죙
죟
죠
죤
죧
죰
죱
죵
죻
주
죽
준
줄
줅
줆
줌
줍
줏
줐
중
줒
줗
줘
줜
줠
줩
줫
줬
줭
줴
줵
줸
줼
쥈
쥐
쥑
쥔
쥘
쥠
쥡
쥣
쥤
쥥
쥬
쥰
쥴
쥼
즇
즈
즉
즌
즐
즘
즙
즛
증
즤
즹
지
직
진
짆
짇
질
짊
짋
짏
짐
집
짓
짔
징
짖
짗
짙
짚
짛
짜
짝
짠
짢
짤
짥
짦
짧
짪
짫
짬
짭
짯
짰
짱
째
짹
짼
쨀
쨈
쨉
쨋
쨌
쨍
쨔
쨘
쨩
쨰
쨴
쩄
쩅
쩌
쩍
쩐
쩔
쩜
쩝
쩟
쩠
쩡
쩧
쩨
쩩
쩬
쩰
쪄
쪈
쪌
쪗
쪘
쪙
쪠
쪼
쪽
쪾
쫀
쫄
쫌
쫍
쫏
쫑
쫒
쫓
쫗
쫘
쫙
쫚
쫠
쫭
쫴
쬈
쬐
쬔
쬘
쬠
쬡
쬤
쬧
쬬
쬭
쭁
쭃
쭈
쭉
쭊
쭌
쭐
쭘
쭙
쭝
쭤
쭸
쭹
쮜
쮸
쮹
쯔
쯕
쯘
쯤
쯥
쯧
쯩
쯱
찌
찍
찎
찐
찔
찜
찝
찟
찡
찢
찣
찦
찧
차
착
찬
찮
찯
찰
찳
참
찹
찻
찼
창
찾
찿
챃
채
책
챈
챊
챌
챔
챕
챗
챘
챙
챠
챤
챦
챰
챱
챵
챼
처
척
천
첞
철
첢
첨
첩
첫
첬
청
첮
첱
체
첵
첸
첼
쳄
쳅
쳇
쳈
쳉
쳐
쳑
쳔
쳘
쳡
쳣
쳤
쳥
쳬
쳰
초
촉
촌
촐
촘
촙
촛
총
촣
촤
촥
촨
촬
촹
쵀
쵁
최
쵝
쵠
쵤
쵭
쵯
쵸
춋
춍
추
축
춘
출
춠
춣
춤
춥
춧
충
춫
춰
춸
췃
췄
췌
췍
췐
취
췩
췬
췰
췹
췻
췽
츄
츈
츌
츔
츙
츠
측
츤
츨
츩
츰
츱
츳
츴
층
츶
치
칙
친
칞
칟
칠
칡
칢
침
칩
칫
칬
칭
칮
카
칵
칸
칻
칼
캄
캅
캇
캈
캉
캐
캑
캔
캘
캠
캡
캣
캤
캥
캬
캭
캽
커
컥
컨
컫
컬
컴
컵
컷
컸
컹
케
켁
켄
켈
켐
켑
켓
켔
켕
켘
켛
켜
켝
켠
켤
켬
켭
켯
켰
켱
켸
코
콕
콘
콜
콤
콥
콧
콩
콬
콰
콱
콴
콸
쾃
쾅
쾌
쾡
쾨
쾰
쿄
쿈
쿠
쿡
쿤
쿨
쿰
쿱
쿳
쿵
쿸
쿼
쿽
퀀
퀄
퀏
퀘
퀜
퀠
퀭
퀴
퀵
퀸
퀼
큄
큅
큇
큉
큐
큔
큘
큠
큡
큥
크
큭
큰
클
큼
큽
킀
킁
키
킥
킨
킬
킴
킵
킷
킸
킹
타
탁
탂
탄
탇
탈
탉
탐
탑
탓
탔
탕
탖
탙
태
택
탠
탤
탬
탭
탯
탰
탱
탶
탸
탹
턀
턍
터
턱
턴
털
텀
텁
텃
텄
텅
테
텍
텐
텔
템
텝
텟
텠
텡
텨
텼
톄
톈
토
톡
톤
톨
톰
톱
톳
통
톺
톼
퇄
퇘
퇴
퇸
퇼
툅
툇
툐
툥
투
툭
툰
툴
툼
툽
툿
퉁
퉈
퉜
퉤
퉷
튀
튁
튄
튈
튐
튑
튓
튕
튜
튠
튤
튬
튭
트
특
튼
튿
틀
틈
틉
틋
틍
틑
틓
틔
틘
틜
티
틱
틴
틸
팀
팁
팃
팄
팅
파
팍
팎
판
팔
팖
팘
팜
팝
팟
팠
팡
팥
패
팩
팬
팰
팸
팹
팻
팼
팽
퍄
퍅
퍠
퍼
퍽
펀
펄
펌
펍
펏
펐
펑
페
펙
펜
펠
펨
펩
펫
펭
펴
펵
편
펼
폄
폅
폇
폈
평
폐
폑
폔
폘
폡
폣
포
폭
폰
폴
폼
폽
폿
퐁
퐄
퐅
퐈
퐉
퐌
퐐
퐘
퐛
퐝
푀
푄
푈
표
푝
푠
푤
푭
푯
푱
푸
푹
푼
푿
풀
풂
품
풉
풋
풍
풔
풕
풜
풩
풰
풴
퓌
퓐
퓔
퓟
퓨
퓩
퓰
퓸
퓽
프
픅
픈
플
픔
픕
픗
픙
픠
피
픽
핀
필
핌
핍
핏
핑
핕
하
학
핛
한
핝
핟
할
핡
핥
핧
함
합
핫
핬
항
핮
핰
핱
핲
핳
해
핵
핸
핼
햄
햅
햇
했
행
햏
햐
햑
햔
햘
햠
햡
햤
향
햬
헀
허
헉
헌
헐
험
헙
헛
헜
헝
헣
헤
헥
헨
헬
헴
헵
헷
헸
헹
헿
혀
혁
현
혈
혐
협
혓
혔
형
혜
혠
혤
혭
혰
호
혹
혼
홀
홅
홈
홉
홋
홍
홑
홒
홓
화
확
환
홛
활
홤
홥
홧
황
홰
홱
횃
횅
회
획
횐
횔
횝
횟
횡
효
횩
횬
횰
횹
횽
후
훅
훈
훌
훍
훑
훔
훕
훗
훙
훝
훠
훡
훤
훨
훰
훵
훼
훽
휀
휑
휘
휙
휜
휠
휨
휩
휫
휭
휴
휵
휶
휸
휼
흄
흅
흇
흉
흐
흑
흔
흗
흘
흙
흝
흞
흠
흡
흣
흥
흩
희
흰
흴
흽
흿
히
힉
힌
힐
힘
힙
힛
힝
##년
##노
##비
##구
##리
##명
##루
##로
##적
##빠
##져
##서
##월
##여
##행
##너
##두
##즙
##토
##록
##개
##력
##시
##다
##간
##지
##경
##성
##졸
##남
##진
##어
##뜨
##린
##삼
##대
##양
##라
##도
##맡
##기
##빼
##쿠
##야
##마
##르
##드
##가
##민
##A
##W
##B
##인
##점
##포
##똘
##하
##속
##판
##칠
##순
##옥
##자
##렬
##히
##궁
##분
##식
##회
##한
##량
##엽
##데
##터
##옵
##니
##톤
##소
##산
##나
##트
##륨
##븐
##일
##레
##광
##용
##모
##이
##란
##장
##화
##복
##려
##선
##생
##준
##e
##p
##o
##r
##t
##랑
##청
##주
##부
##쳤
##코
##오
##뿌
##종
##윤
##원
##율
##배
##백
##호
##동
##아
##버
##카
##맛
##0
##치
##사
##프
##겁
##의
##면
##먼
##벽
##층
##우
##철
##던
##규
##현
##건
##곤
##들
##꼼
##고
##교
##학
##F
##근
##a
##n
##d
##i
##g
##더
##짜
##보
##통
##십
##케
##채
##빈
##클
##엠
##은
##정
##닐
##워
##령
##법
##세
##틸
##렌
##s
##업
##권
##역
##스
##류
##별
##티
##위
##헌
##크
##엉
##빙
##계
##쑵
##만
##꼬
##흠
##끼
##예
##창
##조
##까
##는
##신
##새
##와
##둔
##상
##환
##미
##핀
##없
##혀
##갔
##키
##움
##u
##물
##춧
##질
##필
##연
##황
##되
##울
##욘
##팅
##험
##참
##재
##각
##킨
##론
##해
##내
##O
##P
##E
##덕
##무
##술
##공
##후
##습
##실
##전
##누
##뼈
##으
##며
##런
##러
##브
##틴
##희
##롬
##균
##함
##블
##유
##몽
##에
##타
##퓨
##릅
##떠
##칩
##수
##혁
##씨
##f
##살
##혈
##펴
##봅
##병
##q
##m
##둥
##콰
##택
##l
##요
##널
##를
##겨
##렸
##N
##C
##Y
##샤
##당
##뛸
##길
##난
##국
##h
##방
##체
##혜
##죄
##튼
##웅
##반
##캔
##디
##파
##엘
##였
##잇
##태
##겸
##즈
##영
##네
##솔
##딛
##쳐
##망
##갈
##젠
##닥
##숙
##슷
##갑
##석
##녀
##긴
##섭
##읍
##S
##뻐
##폭
##심
##곡
##합
##강
##잘
##c
##맹
##승
##처
##염
##액
##굴
##U
##즌
##셨
##름
##바
##제
##님
##찬
##을
##틀
##랜
##약
##큘
##항
##쟁
##잡
##온
##1
##표
##놔
##봐
##킴
##둬
##풀
##효
##슬
##잠
##링
##설
##4
##8
##쩨
##운
##등
##칼
##커
##녕
##매
##쉬
##곳
##박
##했
##낙
##천
##색
##임
##춘
##과
##섬
##밀
##갤
##럽
##렁
##딥
##댁
##룸
##변
##머
##립
##향
##ㅇ
##탄
##책
##벙
##음
##례
##능
##감
##독
##받
##맥
##작
##른
##집
##훈
##중
##홍
##힌
##래
##거
##늘
##훙
##차
##저
##안
##득
##금
##문
##할
##올
##탕
##척
##K
##R
##L
##룡
##입
##츠
##H
##I
##본
##품
##앙
##벌
##웠
##탠
##패
##단
##퇴
##직
##충
##힘
##락
##탈
##뜩
##5
##쌥
##싸
##6
##2
##익
##열
##젓
##피
##젝
##겐
##쯔
##형
##범
##벗
##투
##T
##쓰
##테
##걸
##육
##잔
##봉
##담
##련
##풍
##밖
##짐
##쩍
##돌
##군
##냐
##싱
##관
##값
##찔
##릴
##낸
##편
##끈
##줘
##못
##증
##v
##뚜
##룹
##흘
##결
##북
##욕
##말
##엄
##켜
##얼
##탐
##손
##것
##낄
##닭
##룬
##땜
##줄
##발
##곰
##추
##륜
##존
##밑
##깔
##불
##숨
##륙
##밥
##튀
##착
##허
##그
##왕
##G
##텔
##막
##잖
##따
##메
##좌
##땠
##Q
##랄
##날
##긋
##셀
##펜
##급
##쇠
##억
##완
##빛
##견
##셔
##깍
##꼴
##멘
##쥐
##침
##림
##쉈
##w
##덴
##랐
##y
##9
##갱
##D
##웨
##턴
##었
##싶
##글
##납
##탑
##맞
##쑉
##흥
##닛
##돈
##3
##7
##첬
##큐
##팽
##꺼
##애
##퉁
##달
##럼
##든
##눈
##릭
##격
##람
##찰
##힐
##료
##젤
##칸
##푸
##휭
##퍼
##쩜
##플
##뮤
##홀
##콜
##볼
##걀
##찜
##ㅏ
##팍
##취
##렀
##평
##축
##끄
##낼
##X
##꽂
##떨
##굉
##페
##럴
##높
##냥
##왔
##졌
##암
##족
##쇼
##게
##짝
##때
##접
##극
##외
##깨
##멸
##송
##션
##뉴
##V
##J
##쪼
##춰
##랙
##팩
##냄
##몬
##슈
##쯧
##겅
##빗
##슨
##압
##밍
##댕
##껴
##알
##첨
##롯
##늄
##쁜
##베
##늬
##삐
##k
##답
##혼
##끌
##썰
##믄
##뛰
##옹
##씽
##폐
##느
##렐
##절
##엿
##뉘
##출
##똥
##덜
##킬
##쩔
##쪄
##꼈
##놀
##잉
##펑
##친
##Z
##놓
##엔
##언
##뤄
##컬
##센
##콘
##렇
##냈
##뚝
##섯
##쿡
##턱
##활
##텍
##촘
##릿
##앗
##률
##겠
##초
##슐
##헤
##욱
##륵
##렉
##같
##궂
##썩
##귀
##픽
##댄
##쑥
##목
##폴
##몰
##악
##팔
##삭
##춤
##찍
##짱
##깜
##넘
##김
##뇨
##객
##띠
##탁
##붕
##ㅡ
##휘
##검
##롤
##땀
##M
##젭
##닝
##룩
##념
##멜
##킥
##딴
##닉
##핑
##틱
##므
##삽
##b
##먹
##z
##돛
##껀
##랭
##총
##곶
##켄
##옷
##냅
##놨
##밴
##협
##콩
##닌
##맨
##펙
##샨
##딩
##골
##뺑
##얽
##넨
##랴
##붙
##x
##덮
##농
##뷔
##앞
##뢰
##첩
##났
##땍
##흔
##깁
##뗘
##벅
##킹
##혔
##롱
##께
##략
##빵
##깐
##껏
##촌
##컥
##깽
##녔
##텐
##곽
##댜
##궈
##써
##떼
##뻑
##깥
##뒤
##쿵
##벨
##빨
##논
##딜
##징
##잣
##넣
##쓸
##빡
##땃
##빤
##묘
##윈
##몸
##뚱
##룽
##겔
##낭
##빰
##끔
##랍
##럭
##랬
##죠
##왈
##릉
##뻘
##겋
##쭉
##번
##땅
##또
##셉
##핸
##웬
##얀
##앵
##즐
##붓
##꽃
##넉
##쇄
##눌
##댔
##쩌
##씩
##벤
##퀸
##얹
##넥
##컹
##특
##쌈
##숩
##둘
##뱅
##칭
##뭉
##짓
##퍽
##멀
##솜
##융
##킵
##쭐
##걱
##떡
##램
##넛
##욧
##섰
##딸
##궤
##찌
##끝
##갭
##렴
##헴
##똔
##툭
##샷
##곱
##혹
##덩
##깃
##쫄
##짖
##벡
##팬
##녈
##녹
##냉
##랏
##펀
##땐
##듯
##뭇
##ㅌ
##쪽
##뮴
##쌘
##싼
##딱
##휴
##줍
##껄
##갓
##앤
##흡
##굿
##쭈
##렛
##띡
##훼
##멈
##넓
##씬
##썬
##툰
##랗
##볶
##펄
##뜯
##꾸
##켓
##웃
##얄
##칙
##멍
##뒹
##듬
##녁
##픈
##칞
##륭
##딧
##삳
##톳
##묵
##빴
##뽕
##꽈
##뿔
##샘
##팜
##넬
##뎠
##꽁
##겼
##겹
##펠
##앉
##괄
##푼
##첼
##쯤
##럿
##늦
##챈
##깟
##촉
##폈
##갯
##츄
##긱
##줌
##썼
##죽
##폰
##쉽
##짼
##딪
##뱀
##셈
##픕
##쥬
##쌀
##믹
##쬐
##얗
##둠
##컴
##쑤
##큼
##삿
##획
##뙈
##낌
##댈
##숏
##았
##퀴
##쓴
##싹
##셜
##핵
##좔
##왱
##딘
##넷
##꿀
##ㄴ
##ㄹ
##ㄷ
##벼
##델
##쨔
##엥
##뜬
##컨
##않
##둑
##찾
##째
##흐
##빌
##꾼
##몫
##괴
##쾅
##뒀
##꿨
##숲
##쿨
##털
##짤
##괜
##찮
##팡
##봤
##탱
##렝
##낏
##쏭
##응
##낱
##얘
##쿼
##켰
##큰
##퐁
##딨
##숭
##밌
##귝
##퀘
##쁘
##뇌
##쫀
##핫
##겟
##쨌
##룻
##밤
##쿤
##킷
##퓌
##밭
##봄
##꼭
##측
##즘
##튜
##뀝
##갠
##펐
##톱
##옴
##있
##겆
##롭
##릇
##쉰
##컷
##윗
##듀
##냇
##팃
##맴
##떵
##렵
##웁
##뚤
##끙
##팝
##귄
##빕
##헨
##댑
##쉘
##탯
##뎐
##짰
##씰
##샹
##탤
##웰
##팀
##낮
##겄
##댓
##쾨
##횐
##랩
##숫
##쿰
##꿔
##늉
##띵
##퀄
##힙
##맸
##섞
##눠
##옌
##닷
##픔
##닿
##확
##떤
##덥
##푹
##뮈
##벳
##쩧
##썽
##슴
##캐
##찡
##놈
##됨
##꿍
##j
##엇
##넙
##곈
##텨
##쥔
##흙
##햅
##엑
##ㅋ
##찼
##뜰
##밋
##쳅
##엎
##씌
##끗
##덤
##쾌
##덱
##콤
##톨
##쌩
##룰
##삥
##칫
##긍
##콧
##슥
##랫
##숴
##훌
##맘
##ㅜ
##궜
##돔
##콕
##콴
##밸
##쌕
##봇
##줬
##흉
##칵
##쉴
##챘
##켠
##캉
##봬
##즉
##냔
##쎄
##펌
##껑
##된
##늙
##쪘
##홈
##쓱
##빔
##쌓
##뎌
##뺨
##셰
##짇
##팻
##묻
##귤
##굔
##땡
##촐
##갖
##퓰
##빅
##캑
##꿉
##챗
##놉
##잎
##앨
##둣
##놋
##돼
##틉
##뿜
##훤
##궐
##될
##뎅
##뎃
##갸
##닙
##슛
##콥
##숄
##흑
##툼
##뗀
##쩡
##뿐
##슘
##흣
##윌
##낀
##깡
##읒
##찐
##꿈
##툴
##헬
##벵
##짹
##뀐
##굡
##츤
##짢
##뿍
##헙
##쭌
##갚
##낑
##똑
##댐
##밟
##돕
##귿
##꼿
##헉
##롸
##텼
##렙
##솎
##뇽
##셋
##쫠
##괘
##믐
##낫
##뾱
##윅
##굽
##템
##깰
##캄
##렜
##앴
##떴
##뱉
##꿘
##뿅
##둡
##넌
##끽
##샙
##웍
##돗
##윽
##듦
##혓
##걺
##삣
##횡
##떻
##뢴
##듣
##떳
##혐
##ㄱ
##눔
##떽
##꽥
##옇
##깅
##륩
##멋
##껍
##뼛
##솥
##눅
##뇰
##쏘
##녘
##웽
##볕
##샌
##줏
##솝
##텝
##꽐
##좁
##쁠
##핼
##뽈
##컵
##낵
##맷
##ㅣ
##넝
##븀
##핍
##죔
##뽑
##쉥
##힝
##퀵
##첸
##뭐
##쳔
##똠
##꼽
##숯
##뷸
##캣
##왓
##읖
##넜
##좋
##띨
##읜
##뻤
##쫑
##톰
##헐
##싯
##쌍
##촛
##듭
##졍
##슝
##굼
##텅
##깻
##샬
##섹
##퀼
##렘
##풉
##톡
##뜻
##샐
##삡
##냠
##홧
##ㅓ
##갛
##엣
##묶
##맣
##껌
##썹
##켈
##잭
##쭙
##듐
##밧
##쭤
##룐
##슁
##탭
##욬
##랠
##맵
##욋
##풋
##젖
##뿡
##뻬
##뷰
##ㅂ
##ㅅ
##ㅊ
##쁨
##멩
##뤘
##팠
##읗
##듈
##텁
##엌
##돋
##쫓
##맺
##렷
##핌
##킁
##핏
##맑
##캅
##윙
##젼
##빽
##퉤
##젬
##힛
##겡
##왐
##슭
##씀
##헥
##눕
##잴
##릏
##낯
##덞
##삑
##꺌
##셸
##짠
##컫
##샅
##슉
##딕
##롄
##귈
##꽝
##췄
##퍅
##꿎
##엾
##쁩
##쨋
##눼
##찻
##쵸
##곗
##탔
##뜀
##냬
##쩐
##펨
##휼
##최
##늪
##셴
##뎁
##폼
##땁
##뉜
##텀
##큇
##깝
##훅
##쾃
##쑴
##챌
##뜸
##짚
##밝
##삘
##훗
##끕
##캬
##옿
##쉐
##꼰
##볐
##탬
##씹
##얏
##춥
##텡
##첵
##쎔
##틈
##뗐
##삯
##씁
##끓
##윔
##붐
##뽀
##헛
##숍
##찧
##쐐
##숟
##윱
##좀
##쇽
##찹
##펍
##헝
##깄
##쟈
##뤼
##팥
##쏠
##탉
##왑
##ㅆ
##닫
##닯
##뀌
##솟
##벚
##뵹
##쿄
##젯
##샵
##샴
##쒜
##푠
##뛴
##앓
##펫
##붑
##얬
##홉
##껸
##큽
##눙
##숑
##횔
##뱃
##꾹
##녜
##꺽
##ㅠ
##쌌
##읩
##샜
##뻔
##깊
##롷
##뚠
##잿
##릎
##뉵
##챃
##샥
##됐
##퉜
##쩠
##죤
##뽁
##읽
##췌
##ㅁ
##닦
##흰
##뻥
##퉈
##쥴
##떱
##뚫
##낚
##곧
##뎀
##돠
##눗
##캇
##윷
##끊
##홰
##뒷
##땄
##켬
##뀔
##챔
##훠
##핥
##뵈
##꿏
##멓
##쭝
##밈
##캠
##멧
##솰
##쥘
##띔
##빳
##깠
##낍
##볏
##횹
##뾰
##츰
##휜
##텟
##꺄
##걷
##왁
##잰
##뼉
##눞
##잌
##콸
##뚬
##걍
##팁
##멱
##햄
##힉
##웜
##퐝
##앱
##혠
##빚
##닺
##꾀
##숱
##늠
##믈
##씸
##깎
##딤
##샛
##꿇
##솨
##풂
##뼜
##붉
##읏
##짬
##옙
##켁
##폽
##쮸
##쀼
##셍
##넵
##퀀
##읕
##흗
##믓
##뭄
##귁
##윕
##푤
##퇘
##띄
##몄
##쌉
##뼘
##왝
##뺏
##윳
##왜
##튬
##믑
##덧
##푝
##맙
##덯
##덫
##쿱
##냑
##챙
##띤
##휀
##뻗
##틋
##섶
##ㅛ
##늑
##씻
##욤
##웩
##앰
##뢸
##캥
##ㅐ
##뺀
##뮬
##뤽
##꿩
##띃
##뽄
##촬
##섣
##껫
##푀
##뺐
##뵙
##츨
##헵
##쌔
##휙
##쒸
##걔
##꿋
##꼐
##톈
##튤
##쓔
##밉
##쉑
##쑨
##맬
##닮
##훨
##욥
##옛
##칟
##곯
##얌
##짭
##긁
##괭
##탰
##읔
##뉩
##챠
##쑝
##첞
##룔
##쳇
##덟
##튠
##혭
##많
##콱
##뀜
##ㅉ
##뵤
##뇐
##갰
##툽
##쭘
##쏼
##쨍
##훔
##굣
##뺄
##튕
##켭
##녑
##뻣
##륄
##썸
##욜
##텃
##곬
##멕
##죕
##쉭
##쑬
##섦
##뫼
##ㅎ
##ㅈ
##캡
##꼍
##푯
##옆
##뗄
##쑈
##챦
##꽤
##펼
##쩝
##셌
##탓
##냘
##뀨
##팟
##볜
##엷
##늫
##뤠
##멤
##뭅
##곁
##잤
##횝
##삶
##쒝
##켔
##켤
##탸
##뱌
##먀
##웹
##띈
##귐
##욍
##왼
##깬
##쌰
##갹
##쏴
##먕
##팸
##굵
##쟌
##넸
##닳
##숀
##뱁
##윰
##겊
##죈
##됴
##좃
##홱
##챤
##깩
##뵌
##잽
##싫
##뉨
##펭
##찟
##롑
##꺅
##뮌
##괵
##츌
##쏙
##껜
##햇
##촙
##읠
##튓
##좍
##얇
##좇
##셧
##펏
##퐈
##쫙
##찝
##랸
##텄
##삉
##뭥
##웝
##넹
##퓸
##ㅍ
##쎈
##촨
##볍
##눴
##뉠
##튁
##쏟
##켐
##쫭
##젊
##몇
##뷴
##뺌
##팎
##갗
##끅
##엡
##쬔
##웟
##읓
##늅
##쎌
##뀠
##츈
##맀
##뜽
##폿
##낳
##섀
##튿
##몃
##꽌
##곌
##넴
##뜹
##흴
##큭
##껩
##휠
##쾡
##팰
##몹
##쉼
##뵜
##뮨
##캤
##쬘
##픗
##빧
##헿
##펩
##랖
##니다
습니다
에서
으로
는데
##니까
##렇게
그런
지금
이제
그래
어요
아니
그러
우리
이런
이렇게
라고
그래서
사람
생각
그렇
얘기
가지
해서
니까
인제
까지
##해서
근데
그리
입니다
사실
다고
라는
어떤
거든
때문
그리고
합니다
이게
많이
거든요
면서
어떻
예요
잖아
아요
오늘
지만
문제
세요
고요
말씀
다는
잖아요
그런데
는데요
정도
굉장
굉장히
으면
이거
그렇게
너무
어서
정말
습니까
그러니까
여기
들어
네요
어떻게
다음
해야
인데
그럼
저희
부분
경우
에요
아이
그냥
하나
시간
한테
##까요
##통령
한다
부터
대통령
구요
나오
이야
대한
에게
면은
대해서
그게
여러
상황
다가
다른
다시
이번
더라
이야기
그러면
조금
그니까
그거
계속
만들
드리
된다
이나
보다
거기
진짜
바로
의원
북한
가능
대표
해요
일단
겁니다
은데
나요
같이
는지
무슨
자기
됩니다
국민
필요
처럼
정치
모르
그때
아무
아주
한국
가장
중요
시작
나라
아닌
그것
마음
얼마
으니까
어디
이상
함께
선생
아서
미국
##게요
##대로
아까
처음
지난
도록
관련
정부
확인
보내
엄마
아마
준비
먼저
입장
##가요
들어가
그걸
위해서
사건
학생
서울
영화
아직
께서
위원
이것
결국
내용
그랬
프로
친구
드릴
느냐
나가
어머
보이
어야
다면
나왔
약간
본인
방송
상당
건데
사회
보여
이유
만나
돼요
혹시
실제
노래
##고요
어느
돌아
요즘
왜냐
당시
아닙
모습
을까
조사
따라
관계
후보
일본
국회
그래요
여러분
민주
이러
이미
대로
사이
뭔가
##세요
##센트
거나
##다고
퍼센트
경찰
중국
알려
대학
되게
이건
학교
동안
자체
현재
려고
상당히
에스
괜찮
이걸
더라고요
직접
인데요
나와
하고
특히
아버
전화
모든
자신
선수
교수
그건
수사
거의
교육
그래도
연락
을까요
인지
밖에
올라
냐면
누구
##어지
했었
경제
어려
운동
기자
지역
상태
봐야
피해
진행
해도
얼마나
기억
자리
빨리
군요
검찰
과정
사랑
구나
제일
여성
통해서
이름
언제
십니까
당신
어제
소리
만약
이후
##다는
결과
국가
이해
잘못
##지만
여자
방법
안녕
라도
결혼
##구요
물론
어쨌
걱정
더니
##어나
맛있
그럴
저기
마지
가족
##스트
사진
선거
마지막
활동
감사
애요
새로
회사
으시
나온
그까
변호
주장
느낌
부탁
궁금
문재
없이
##데요
경기
남자
설명
의미
어쨌든
아버지
시키
예예
김정
원래
남편
힘들
실제로
공개
최근
어머니
기다
드릴게요
당연
세계
오히
오히려
보통
사용
모두
드렸
정상
##든지
아야
##요일
한번
라면
결정
가요
찾아
그만
건강
##하면
누가
##다가
##자기
표현
얼굴
역시
서로
이라
왜냐하면
자유
인사
아들
박근
지원
개인
전문
소개
변호사
책임
청와
박근혜
청와대
갑자기
엄청
인가
관심
봅니다
아닙니까
시장
완전
사고
하루
아닌가
이랑
배우
질문
지나
정책
잠깐
##립니다
내려
제대로
생활
걸로
장관
다니
지지
못하
드라
언론
음식
위원장
정보
더라도
티비
나중
##어요
하지만
이용
아하
해결
특별
평가
한다고
돼서
분명
기대
가져
뉴스
내일
셔야
민주당
인터
회담
##든가
은데요
여행
텐데
연구
혼자
봐요
관리
어렵
보도
아빠
는다
나이
계시
아침
전혀
일반
세상
시대
역할
일부
과연
항상
공부
병원
이분
재판
부모
한데
##래도
과거
기업
판단
##려고
##심히
최고
버리
자꾸
새로운
발표
##소리
위한
문화
정확
발생
고민
우선
비슷
충분
음악
넘어
스타
마다
회장
그대로
들어오
시켜
도움
##머니
반대
야당
오래
셔서
와서
당연히
으신
네네
기본
정리
##동안
에이
문자
문재인
무엇
만큼
머리
한다는
역사
똑같
된다고
전체
열심히
케이
국정
유명
떨어
기사
인정
김정은
지방
어도
이루
정신
기준
는가
다섯
건가요
다르
현장
사업
아닙니다
##부터
노력
##다면
아무래도
차이
생기
아내
자세
바라
제품
따라서
영상
예전
##그램
죄송
상대
논란
옛날
연결
선택
등급
##민국
훨씬
과학
대한민국
정당
나타
##운데
재밌
나올
시민
의견
그러나
분위
다양
지켜
##디오
마시
언니
프로그램
위해
달라
##이트
니까요
알아
남북
올해
드립니다
작품
합의
줘야
주문
왜냐면
효과
오빠
##부분
발언
참여
잠시
##시오
요리
입니까
그분
요렇게
선물
제도
조선
절대
영향
아파
에다가
대화
주인
주변
##잖아
소식
겁니까
계획
제작
개월
만드
별로
순간
요구
트럼
xx
노동
행복
확실
스럽
몰라
분위기
돌아가
보수
트럼프
추천
충분히
든지
전형
대부분
바람
사장
기분
작가
가까
대단
목소리
들으
범죄
피해자
검사
영어
또는
기록
일어나
아니면
도와
한다면
정권
드라마
로서
일정
분명히
운전
살펴
대상
지요
감독
벌써
분석
추가
의사
기회
비판
움직
미래
만든
어려운
이어
기간
위험
어린
바뀌
불러
듯이
스러
계신
여론
부르
인가요
##가지
예정
완전히
10
드러
주민
인간
현실
전해
어찌
##레이
신청
성적
운영
그동안
##시아
가격
회의
불구
저런
남성
의혹
누리
된다는
처벌
학년
으세요
십시오
발견
##려서
##옵니다
##스로
저녁
##주의
전쟁
측면
가운데
재미
올라가
구조
나눠
요거
자료
아닐
자연
상담
행동
계약
변화
니다
미안
스스로
지도
전부
전문가
더라구요
대체
따로
대신
처리
##학교
느끼
경험
방식
으면서
유지
대해
직원
장면
행사
사과
이래
여름
##거리
미리
인생
드린
##철수
기관
기다리
거리
성공
신경
시청
기술
될까요
자면
안철수
수준
##랍니다
구체
워낙
중심
국내
부족
그러면은
안전
부부
원내
제기
고등
##잖아요
외국
해당
도시
군사
전략
신고
어떠
듭니다
교과
평화
바랍니다
그림
최대
부담
번호
으셨
게요
이때
마찬
라서
수석
능력
인기
올리
대요
단계
고객
시절
연기
중간
반응
어우
증거
부인
##없이
으로서
자주
여섯
전하
모양
예상
화장
위원회
마치
할머니
지적
공연
법원
##입니다
##레스
구속
단체
대선
공격
다녀
##라고
혐의
자식
건지
아유
자동
보호
##아들
간단
이슈
아예
##디어
출연
집중
핵심
카드
누군
그쵸
저렇게
마찬가지
외교
작년
오후
포함
일어
##워서
근까
건데요
인터뷰
백만
감정
다만
국제
내부
차량
이케
환경
가수
개발
할까요
당장
드려
몰랐
방문
아무리
떨어지
못했
아파트
생겼
할게요
사항
주제
스트
개혁
이사
투자
시기
솔직
예약
논의
이라든지
보입니다
라디오
앞서
그룹
어떡
시험
사무
세대
조치
주로
치료
아프
환자
살짝
존재
##드시
반드시
작업
심각
려면
고기
공간
에선
수학
음음
##00
안타
활용
총리
사연
쪼끔
어쩌
이혼
글쎄
방향
삼성
실장
약속
돼야
얘길
경쟁
해석
해외
이쪽
차원
비교
청소
으흠
빠져
통해
오랜
##이터
나와서
합니까
수능
출신
떠나
일곱
으니
##자리
비서
표정
어때
볼까요
그죠
여당
가정
조심
비용
사망
이럴
이렇
밝혀
서울시
넘어가
받아들
판결
라든지
불편
국당
청취
발전
박사
이재
거짓
매일
희망
조직
고맙
커피
보고
권력
허리
세력
인물
화면
다행
선언
소위
주택
체제
충격
마련
살아
등장
힘든
사례
도대
아우
겨울
지사
도대체
바꿔
동물
맞춰
##전히
따르
중앙
가슴
##무리
점점
하여
이전
동의
상품
적극
건물
원인
이곳
천만
만났
통일
청년
공동
의심
전국
##여서
그만큼
인터넷
느껴
교통
을지
공식
동생
못한
##인트
그쪽
공감
##비스
이명
업체
불안
했어요
정의
행위
광고
제목
게임
대책
조정
시원
조국
아냐
아나
대회
예산
부산
원장
걸리
성장
상관
마무리
소송
갈등
##어진
놀라
심지
토론
으면은
##시지
##림픽
밝혔
선배
여덟
보험
어서요
임금
기다려
들어와
이라든가
라든가
부정
##이크
##말로
올려
축구
우려
볼게요
##시다
바꾸
인상
포기
가치
심지어
##거운
지키
버스
##너지
세월
##고기
종합
완성
들어갔
다리
우와
아나운
고서
던데
아나운서
여전히
신문
##집니다
자동차
내리
##나라
그녀
혹은
저거
키워
아홉
나누
올림픽
고려
연합
내년
산업
수업
행정
가르
비밀
재산
적용
나쁜
##의원
알아보
요청
됩니까
단순
촬영
자고
서비스
고등학교
성격
##스크
야구
대응
메시지
우주
전달
협상
물건
주일
려는
끝나
무서
등록
해라
투표
평양
한편
헌법
끼리
가만
그날
모시
여야
재료
##이지
방금
##조건
나무
센터
아름
담당
제주
도착
지난번
사라
마는
시스
무조건
##수록
검색
최저
취재
김치
이르
좋아
##쳐서
봐도
현상
업무
주말
##이어
##아지
에다
평소
이명박
불법
위기
훈련
통과
연예
당하
셔도
나머
##아버
스러운
매우
거짓말
분야
나름
폭행
포인트
요새
가진
조건
출발
목적
고생
오전
스타일
##구나
으실
나타나
공장
댓글
유리
구성
기름
도로
심리
달리
동네
금방
바른
사태
수술
자는
가시
시스템
이른
나머지
메일
총선
##마는
소장
기능
옵니다
차례
##져서
누군가
무대
##무원
대학교
의식
오른
새벽
키우
비행
##아버지
소설
안정
아이고
청취자
청문
형태
눈물
주인공
아버님
가끔
규모
시점
할지
지내
생긴
초등
냄새
인식
아도
챙겨
마을
나갈
직장
서류
날씨
대법
솔직히
대출
너무나
깜짝
일까요
어른
달려
버렸
특검
의지
계산
##리아
아닌데
기존
종류
평균
개념
##이스
더불
##반도
시설
통합
얼른
지지율
국회의원
주목
굳이
##린다
목표
##어들
소비
예술
##려요
양념
될지
노무
장애
일종
겠죠
국정원
판사
통화
사실상
식사
정답
어떨
택시
장소
독립
한반도
니깐
빠지
어머님
도전
십니다
총장
유치
영국
##으면
생명
나서
또한
직업
그렇지만
의도
살펴보
고마
고소
강화
할까
실질
어쩔
폐하
나갔
영장
부장
취소
디자
주의
더욱
시청자
교사
공사
소속
따뜻
다면서
냐고
20
돌려
이동
소득
최소
강조
동시
안보
소통
데리
결론
은행
설치
정치인
##사일
하늘
진실
언급
진술
사안
시도
##리스
구매
상상
그래야
러시아
하여튼
##대표
요런
공천
강력
피부
대중
실험
미터
절차
독일
제안
속도
위치
자네
단어
한데요
시각
전기
대사
김영
혁신
오랜만
근무
둘러
스트레스
이미지
응원
판매
수입
개선
노무현
국방
짜리
로부터
관광
바이
갑니다
복지
살인
여쭤
긴장
연습
거래
##BS
해야지
실수
호텔
지하
움직이
청문회
빠르
할려고
라이
##랜드
의해서
모아
바다
규정
내놓
소금
성분
미사일
집안
대변
봐서
줍니다
최대한
실패
어울
지구
들어온
##라인
장군
일으
최순
들어간
배달
식당
며칠
시킬
고추
제재
주도
##케이
당선
엄청난
모델
미세
기획
걸어
어차
색깔
싸움
본격
어차피
공무원
진보
간다
스물
열리
재미있
##에도
사전
상처
들여
##학생
반영
최초
파악
검토
휴대
사옵니다
가까이
폭력
변경
근로
뭡니까
KBS
그럼에도
신뢰
계십
부동
거부
특정
수상
원칙
지마는
원내대표
아저
##군요
무기
의료
제공
저게
관한
##가락
아닐까
정해
사법
블랙
누나
대비
흔들
보냈
편하
마늘
인권
가을
그야
마세요
오해
데려
공공
일자리
##려면
복잡
진정
텐데요
청구
아저씨
점수
코너
라구
고자
사정
프랑
확보
주요
기념
천천
했잖아요
오르
천천히
확실히
홍보
시켰
강하
체크
주부
아무튼
근처
들어왔
장기
뭔지
북미
에너지
예방
숫자
걸까요
답변
불리
탄핵
아무것
물질
추진
바라보
사기
화장실
유럽
##워요
금액
지시
보였
현대
그야말로
스포
답니다
아래
할아버지
싸우
아니요
평생
핸드
자세히
자녀
대답
##에스
는구나
가까운
결제
군대
시킨
이른바
여보
조용
##러스
디자인
접근
물러
지난해
연금
작성
나간
##가루
세금
부동산
돌아오
일찍
##무성
매력
마마
범행
비행기
가사
계기
##핵화
다시피
비핵화
생산
화제
메뉴
자금
쪼금
보장
이익
긍정
고통
예쁘
벌어지
프랑스
들으면
보인
피디
점심
선고
일상
김종
제시
정말로
된다면
근거
##마디
김경
찾아가
이기
##의자
어린이
##께요
실시
대법원
당했
나옵니다
노인
고구
확대
참석
밝히
학부
전통
여부
호남
도망
공항
는다고
자격
한마디
팀장
안내
꺼내
으셔
##다니
##릅니다
원하
생겨
안타까
근육
카페
물리
영역
얘긴
연예인
드릴까요
전망
들어갈
이어서
강제
사월
##아가
스포츠
출마
됐었
무리
만난
빠른
와이
아쉬
논리
진단
##케인
최종
반복
김무성
라인
던지
모른
답답
법률
허리케인
가게
유월
인해서
멤버
태도
뛰어
국어
배송
질환
아픈
의무
마이
자마
##라이
유치원
앨범
신기
영양
고용
높이
유승
장난
특수
엄청나
정확히
삼월
본다
위반
특별히
물어
광주
자마자
인도
임대
에프
본부
수도
xxx
어떨까
민정
네네네
줘요
지속
흔히
주차
TV
다고요
비율
제발
아름다
비롯
##래요
개정
##스터
억울
볼까
연애
형사
취지
공기
버린
검증
참고
으로써
집단
무려
더라고
기소
오월
자랑
좋아하
##느리
뒤집
전공
항공
가방
이따
##어졌
어렸
##어도
공원
식품
박수
깨끗
마리
이어지
었었
조차
혁명
해명
청소년
들려
가입
다구
##거나
이루어지
시사
철저
지나가
전반
출근
만날
똑같이
전자
뿌리
시행
금지
아줌
김성
컴퓨
는다는
날짜
돼지
법안
추억
국물
눈치
##니깐
여사
민간
졸업
시선
제거
대북
설득
타이
기계
컴퓨터
개입
제출
증상
마주
비해서
임명
추정
##봐야
다이어
셨잖아요
카메
강아지
금융
목숨
양파
월요일
위협
멀리
회견
아줌마
손해
시인
편지
강한
분노
30
부대
증가
##진다
나와요
들리
심사
동아
수시
승리
교체
아닌가요
통계
혈관
평론
합격
축하
앞두
으로부터
이끌
번역
의문
수영
키워드
완벽
관계자
무료
입시
따지
언어
경영
의장
##리카
무시
유엔
압박
제한
맨날
감동
##와서
##오르
면접
##끄러
괜히
수정
멋있
거라
집행
취업
통신
권한
대목
으러
서른
모자
배경
채소
연장
핸드폰
카메라
다이어트
한지
유승민
작용
##마트
협의
문희
도입
그려
계세요
차지
부탁드
지켜보
황교
요금
최선
회복
모셨
나쁘
늘어나
과목
비난
배치
법무
특징
징역
큰일
샘플
대구
가짜
개헌
심하
성과
구월
소화
덕분
##타민
어때요
공정
소스
냐면은
간장
확정
연대
사이트
정체
##라리
봉사
찾아보
세기
실력
어허
설탕
금요일
어야지
신분
인천
국무
비씨
한쪽
홈페
소문
홈페이지
성폭
알려져
박지
사퇴
쇼핑
가만히
대리
대변인
난리
요번
데이터
지급
적절
예측
뮤지
비싸
할인
미치
황교안
비타민
명확
##먼지
과일
맞추
개성
이하
심장
일부러
비리
미세먼지
강남
대장
규제
스마트
협력
산책
스토
어마
없애
공유
끝내
각자
훌륭
적어도
평론가
가구
전환
##다보
우린
외부
공급
가득
순서
아가
보낸
건설
휴가
강의
아마도
아니야
남겨
계셨
며느리
아기
어르
저렇
그나
이틀
이론
생일
드셔
상징
저쪽
무릎
압수
권리
수고
가해
발사
야권
지난주
치매
펼쳐
올라오
상승
퀴즈
오랫
반갑
한두
줄이
고양
부드
주소
줘서
당한
여유
대단히
예예예
이리
죽음
대기
바닥
김대
아르
전시
이정
늘어
기운
사무실
유튜
유튜브
##텐츠
연관
피곤
받아들이
로운
오만
저번
리더
어르신
특이
차라리
다니까
계십니다
몰라요
집권
연주
오이
떨어져
관점
찬성
학과
고발
씨씨
즐기
수치
유일
민주주의
문건
본다면
너희
이랬
인구
올랐
문학
##이드
뜨거운
드디어
보상
##모님
박정
가져가
##사자
김정일
내신
내려가
데뷔
오른쪽
두려
세우
장사
상식
오랫동안
애기
##스타
드러나
반성
차별
고향
마디
중단
공약
일월
으며
길래
다는데요
학원
용서
범인
##미터
수출
안타깝
킬로
법정
제주도
골라
으니까요
불만
걸릴
편안
았었
노동자
최소한
초반
모임
이월
래요
##져야
아이디어
흘러
불과
초기
학부모
단일
베트
준다
내지
점검
어라
해야죠
구입
떨어졌
만족
크기
자극
구하
당국
사유
예능
서요
김태
##이월
는군요
##카오
돌리
##일보
과장
시위
캐릭
고위
용어
음료
지식
뇌물
선정
소유
바쁘
보관
공포
체육
민족
한참
올렸
학습
교과서
태양
자치
엑스
꾸준
조작
이승
요소
베트남
의뢰
구경
시즌
유행
진영
진심
식구
인원
라니
기초
적당
십이월
이젠
감자
으론
당황
생길
##제이
리스트
증언
건축
##려야
명예
캐릭터
어릴
초대
인공
집회
모여
월드
담배
긍까
일각
아아
단지
다루
테스트
##갑니다
종교
타임
탈당
중학교
어려움
민생
소중
소방
기구
마침
학기
##라스
흐름
자전
방안
##으니
피의자
철학
아동
어려울
휴대폰
대전
손님
현금
평창
결혼식
조절
반발
##에이
저지
쓰러
소재
##어버
편의
##는데
근본
한미
민심
##로나
경기도
파이
맥주
재벌
재단
수수
소비자
알리
경기장
새롭
화재
온도
##어마
어마어마
수행
합리
시신
카카오
어울리
냉장
보일
폐지
자분
건가
구분
구만
상대방
비서관
안타까운
스케
군데
제보
하이
드려야
협박
##십니까
개그
각종
정시
홍준
국장
시월
한가요
마약
홍준표
그릇
베이
신가요
배상
체포
현지
빨간
들이
월급
종이
떠오르
용기
칠월
떨어진
쉬운
활성
##나리
왼쪽
군인
##기름
가리
아뇨
붙이
다면서요
체험
불렀
게다가
지정
다구요
피하
순위
고양이
놀랐
웃음
##레기
각각
팔월
정황
어깨
도서
납니다
비대
후배
절반
반면
줄어들
태어
형식
아름다운
아쉽
공단
출석
축제
이재명
방해
주년
느라
써야
사상
양쪽
라고요
무섭
들어와서
취하
다며
세워
주식
우연
투쟁
미군
성인
지점
우리나라
촛불
될까
비법
일억
만남
외국인
칭찬
사드
쓰레기
##라도
테이
재판부
야지
##회장
토요일
대형
으려고
유병
바깥
지도자
음주
코로나
자전거
시켜서
##아이
성향
습관
설마
인연
살해
소녀
체계
플러스
형성
봐라
열린
내렸
느꼈
퇴근
가루
어땠
##합니다
도발
실까요
십일
한계
##어질
라구요
연구소
대안
우울
떠올
끝난
그르
미술
부위
치킨
된장
온라인
당사자
선발
십일월
아라
예매
대충
일어났
장점
챙기
모집
김일
경선
작전
줄게
집니다
잘라
로써
논문
관객
달걀
##군다
걸렸
후회
죽이
추석
회원
서민
통제
게끔
고구려
끓여
건너
끌어
노출
파일
비싼
비상
익숙
이란
학자
골프
지났
아베
포장
다녀오
가졌
어려워
법무부
영업
기타
비례
장치
모의
자라
지하철
절대로
##군다나
브랜드
소환
나타났
크리스
보인다
교환
까진
대박
껍질
어딨
재정
맞춰서
프레
호흡
달러
스튜
혜택
살려
유료
코스
새우
먼지
그런가
뮤지컬
매장
아이구
아이돌
대결
변하
터지
충돌
냉장고
요게
이메
범위
부회장
동원
백성
명절
그런지
특집
김현
동영
시어
연설
보고서
그저
희생
우유
단순히
욕심
이메일
공직
그치
유기
##바이트
감기
티켓
강원
언젠
분리
실망
몰래
혈압
노조
붙여
고개
계실
제외
스마트폰
허락
아무런
으음
수요일
급하
수용
프로젝
동기
따른
오류
일어난
뭘까요
전당
지휘
빠졌
국방부
동영상
던데요
라니까
박지원
수많
신다
##대요
나온다
추적
부자
유병언
느낄
프로젝트
폭발
##가족
기반
공학
해졌
증명
입학
벗어나
배워
##나무
레이
운전자
둘째
식초
##페인
수단
전세
인재
일까
피아
##저히
정의당
어쩌면
계좌
독서
공주
매출
생각나
무서운
무죄
아시아
아르바이트
과제
엘리
소년
균형
면역
예쁜
극복
침대
김일성
##서트
문의
아가씨
슈퍼
간호
반찬
부딪
형제
아이디
무너
그걸로
시집
의외
옮겨
콜라
다운
당원
불가
김대중
스테
프리
눌러
세트
다행히
바퀴
자율
나섰
전제
혈액
만화
빌려
디제이
벌어진
개봉
선진
부러
설정
보건
##벤트
이래서
혼란
표시
요기
##우스
##니스
보안
이벤트
드실
깊이
이탈
접촉
경계
개편
뉴욕
직전
달라지
수분
단독
매운
훼손
가질
대처
멋진
놀이
화장품
마저
자살
##이션
##고사
일요일
김지
양반
입증
때리
보완
여지
라면서
꾸준히
매체
따져
방지
완료
기울
강경
여권
사이즈
동료
오일
박원
박정희
이만
근로자
구도
단백
태어나
신호
테러
보여요
곳곳
당뇨
벌어졌
동맹
##나물
대조
살리
마트
콘텐츠
그나마
우수
마스크
폐기
계열
에어
이뤄
첫째
방어
황당
목요일
진로
서방
더군다나
마이크
한잔
설계
녹음
김기
도저히
심판
은지
##권자
이내
가해자
자원
콘서트
흥미
##규직
객관
수익
백억
가르쳐
에서부터
공통
작곡
화려
문제점
걸려
한국인
위주
의회
주무
예비
브리
아니면은
##으로
자존
이재용
논술
빠진
단백질
재희
다를
동일
저렴
이쁘
진상
귀여
##전자
어떠세요
곤란
심정
남기
한가
와인
시어머니
세포
케이스
등등
접수
아서요
꼼꼼
신데
중도
##바로
##문학
실시간
유산
임기
예고
다스
두부
협정
그곳
섭취
왠지
11
아세요
의학
커지
앵커
고정
저자
긴급
카카오톡
브라
스튜디오
서울대
토크
보낼
힘드
12
보증
임신
임시
해소
단위
전원
남한
스무
명분
본질
전투
편집
남녀
진짜로
다녔
움직임
이웃
부상
으루
신발
못할
흔적
##깁니다
누워
지도부
인수
스토리
운명
##다른
수십
해진
져야
여긴
국면
천억
요인
참가
기부
##을까
와요
김종인
이영
신용
후반
알려진
시리
경고
영구
모를
으나
후원
깔끔
갔었
상관없
##해요
다닐
양보
메르
일제
서부터
려구요
미디어
제조
신다고
##랑이
역대
##머리
자본
극단
매니
그리구
수리
마당
풍경
판문
고마워
반기
전면
병사
##브이
내내
올린
져서
나경
무사
대개
괴롭
부서
탄생
박원순
고르
경력
주자
협조
바보
배려
안심
호르
제작진
손가락
편의점
입맛
결심
어딜
도서관
신다면
동아리
반가
조카
살아가
이를
관람
채용
경향
수색
흐르
가태
농담
계절
##하나
벌금
주방
정서
증인
알려졌
고속
호르몬
정식
거론
이종
##간다
성폭행
연극
확률
15
방탄
부여
담겨
인근
김한
실종
##던가
지인
써서
명령
와중
측정
행보
황제
미팅
장르
화학
특성
모여서
부품
든가
확산
온다
김동
한텐
마흔
요건
가스
선보
주위
걸린
하락
섬유
정하
택배
##총리
계약서
드세요
들어온다
바뀐
벌이
조용히
드루
사인
통증
고사
데요
쓰리
똑똑
사라지
배제
대가
내세
바르
그린
보복
제이
측근
하하
##은이
종일
리포
독자
어딘
출입
함부
##이버
려고요
위로
사령
연속
세탁
완화
##동생
실무
이르케
트랙
모으
당분
타격
돌아왔
판문점
이대로
유통
##드리
대략
세종
흡수
월드컵
##다리
배고
연출
토마
발라
들으면서
마셔
매년
쟁점
반려
지진
페이스
들어서
드셨
라이브
청산
클래
경호
오픈
중소
함부로
고급
##러운
성함
친절
극장
내려오
연구원
미소
소주
그랬었
일으키
부탁드려요
작동
오리
웬만
##am
속상
부처
즐거운
냐는
호소
내보
당당
붙잡
연계
환불
관해서
이모
배신
차려
패션
감시
어두
나왔었
##혀서
위안
윤리
허용
가져다
관측
교육감
만만
커플
새끼
조합
흘리
실래요
대조영
농단
병우
입법
가깝
교류
동작
이날
조언
지배
##교육
시골
여서
모셔
목격
이걸로
누르
공화
맞이
##바이
유사
고런
화요일
독특
이겨
그러고
존중
유학
엔진
보좌
입원
드려요
메이
연말
얼음
염증
플레이
볶음
이자
좌석
출산
청원
가볍
##터리
##끄럽
일방
기각
리그
역량
계란
지역구
상임
고모
지대
여의
드라구요
김진
의자
이사장
김용
방학
단속
박스
채널
브이
별도
조성
조회
##거지
맡기
집어
클럽
나경원
거대
무게
이념
복귀
##번에
아닌지
더블
##란히
창업
막상
걸음
버섯
##ame
오케이
따라가
담당자
연령
##여야
탐구
전력
심한
새해
착각
밴드
신체
name
즐겁
수수료
인민
부른
##일구
##리어
배웠
열렸
논쟁
출판
진출
헷갈
다가오
무역
매달
언젠가
브리핑
##운드
협회
테이블
인력
처분
시켜야
아휴
식물
보조
당내
정지
##납니다
투명
경비
차관
리더십
중독
거절
을게요
중계
지자
연세
해산
경쟁력
##에프
지상
향해서
놓치
통하
메르스
투입
합시다
가로
의한
혼인
##습니까
여보세요
매주
##어져
면허
##화점
교육부
갈라
다수
문서
대해선
다릅니다
애매
치즈
##아내
진지
나와야
달라요
지난달
로봇
변수
무지
미친
주사
드러내
문장
밝힌
그러니깐
끓이
잡히
바꿀
육아
중대
우승
생존
골목
올라갔
##디션
으려
허가
즐거
##니아
게시
라기
스러워
관절
열정
고문
주차장
생강
악기
차단
허위
농구
라며
감성
##워하
일어날
데이트
발휘
인자
풀리
서운
리얼
추측
눈빛
취임
어리
다면은
애초
##둥이
포착
겨우
장비
입주
통장
구멍
금리
감옥
생선
##부지
50
랄까
숙소
##온다
다소
보여집니다
백화점
녀석
인해
평등
대학생
영원
멈추
장성
소이
들어올
201
실천
왔었
##춧가루
느낀
존경
그럽
치열
버려
조현
버릴
법인
경찰서
대법원장
늘리
모이
구역
하도
교회
토마토
뮤직
유권자
독재
당일
순환
위장
바탕
광장
조항
파티
고백
내린
폭탄
파트
보유
선호
만일
살림
승부
시리즈
그러다가
돌아보
##징어
한꺼
한꺼번에
정비
##로운
19
끊임
대권
한복
일반인
부리
인한
준다고
사모님
숨겨
원자
시계
신부
글로
김경수
##너무
너무너무
전두
평범
##본다
부작
신중
드릴께요
나빠
스피
진학
현직
어이
으라고
지나치
건조
##수색
잖습니까
징계
왜냐하면은
갈까
져요
가르치
과학자
그대
이성
압수수색
넘겨
변호인
사면
응급
예뻐
나선
이태
나아가
감염
전직
놀라운
바람직
##한다
100
국수
어유
비하
수량
가져오
직후
무장
##뜨리
하나하나
환영
종전
발음
응답
지켜봐야
모의고사
와야
짜증
인류
일보
누군지
통상
정성
퇴직
빛나
필수
양심
수요
버티
차장
확장
경남
##덩이
##부인
##찌개
오징어
도구
아웃
그러게
피아노
질병
##란다
박영
검색어
채워
여태
몰라도
반기문
끔찍
으라
진화
폭로
국립
시내
정무
정기
바빠
참기름
##프트
검거
야구장
즐겨
막내
기억나
넘기
민감
맛집
소신
졌어요
색상
회계
순수
수당
관여
상하
도덕
선전
유형
##마스
글자
사위
돌아다니
마음대로
의하
카톡
살펴볼
감소
했잖아
해설
서양
기지
##볶이
오프
유죄
저러
##바닥
틀리
매니저
강도
정국
한창
결코
패스트
김부
바쁜
지자체
갖추
해질
남쪽
피자
##란드
찾아오
고장
외모
유도
##페이
##메달
할려면
당분간
고추장
언론사
담덕
자제
이스
티브이
사찰
떡볶이
오바
윤석
주체
뜨거
거주
강원도
신혼
자영
가이드
책상
실행
향해
차리
난다
다이
지혜
롯데
과도
철도
박물
정유
비중
김혜
##스코
바지
스님
자존심
에어컨
장수
적응
발달
페이지
수록
급히
애정
배운
신나
호주
궁금증
##리스트
구워
미쳤
들여다
전두환
육수
소수
책임지
프레임
출장
부드럽
그니깐
##생활
둘러보
친정
공방
##화문
비디오
유발
크리스마스
적합
인증
자영업
꼬리
러브
참사
풍부
확신
고거
##너스
돌파
지수
배출
요걸
적폐
멸치
헬스
여인
진우
억지
웬일
저하
물러나
쓰이
지지층
관광객
갈아
민성
##어리
규명
막말
##케이션
실내
##총장
화성
일지
밥상
태자
태극
아쉬운
언제나
다는데
이의
열차
부를
연인
아닐까요
명단
예민
영향력
상가
나타난
자산
##파이
박물관
바꿨
개최
몰라서
어려웠
##던지
간다고
진료
공소
신속
넘치
##피스
조각
신선
사법부
연휴
저항
거꾸
밀어
고구마
가난
케이크
드러났
아시
김수
막히
끊임없이
감히
부적
간호사
몰려
다름
사귀
신동
어쩐
조선일보
빠져나
강요
유출
옮기
저질
젊은이
웃기
으셨어요
저걸
강연
저것
현안
고쳐
내놨
대하
별명
시진
한강
소지
귀엽
머물
철수
와이프
계단
니까는
반박
주거
거꾸로
일관
기도
글로벌
유해
노선
파괴
느라고
치르
부작용
보단
특위
견적
날아
그만두
주석
그람
뿌려
취미
여의도
배추
복수
삼촌
모아서
발명
월세
##해야
##스토
말리
시나리
체력
던가
걸어가
간식
고유
모바
텔레
분쟁
정세
견제
노릇
분열
교양
집어넣
먹이
었잖
조만
예의
내주
는다면
가량
금강
모른다
기적
이이
모바일
주기
아이스
무너지
기차
머릿
수백
청장
법조
다녀왔
이외
##혜원
틀림
거치
댄스
한단
파란
들여다보
업계
파리
그램
인형
##소년
눈길
한글
유가족
하얀
수비
캠프
봅시다
최일구
시나리오
노후
학대
이루어진
##둘러
딱히
수습
무언
지연
효율
흉기
납득
주간
루나
한때
상위
끌려
간부
장인
트로
양식
홍콩
도둑
양승
담긴
전했
기재
탈출
다진
요것
클래식
패널
마땅
맡겨
대행
로맨
미니
취향
단단
이불
장악
천재
##저기
평상
시진핑
불쌍
합니다만
##로그
지지자
기여
주먹
향후
딱딱
아실
달래
실은
여기저기
냉면
액션
왜곡
사자
흔들리
출동
부패
안쪽
영감
짐작
강사
구청
줄어
해고
우연히
분양
분류
고전
압력
창조
약하
##겁니다
나간다
다치
다큐
섭섭
스위
집사
##겠다
미칠
이수
왔어요
어야죠
사내
고령
심해
랍니다
스테이크
로그
내각
음성
명백
##세지
비박
신랑
급여
베스트
삭제
##져요
밀리
이중
##희정
운행
코드
조만간
이요
구두
센치
을래
이순
리포터
거듭
##겹살
디지
삼겹살
스트레
면역력
맥락
입구
감각
액수
지냈
종종
항소
마실
활약
되돌
불행
연희
품격
관찰
노벨
은하
광화문
소고기
잡혀
공동체
뜨겁
인용
계십니까
00
장례
연락처
올라갈
수박
은퇴
달라졌
급한
데이
변신
착한
내게
공작
지명
표준
내려놓
더러
도요
반지
냐구
재수
화상
소서
생겨서
한다든지
그럴까요
바꾼
더군요
신상
잃어버
트위
아야지
헤어지
마라
추구
트렌
##십시오
부당
메모
이놈
이라도
##티브
스페인
##키지
모릅니다
산소
스케줄
고춧가루
약한
조기
패키지
윤석열
소원
규칙
수면
황금
##케팅
지갑
명품
항의
재고
왜냐면은
정작
통보
##기업
당근
어지
컨셉
##인지
놔두
부추
소요
활발
기다렸
귀찮
냉동
그럽니다
아끼
으십니까
폼페이
비유
목사
가려
이따가
악화
돌아온
심상
마케팅
태극기
도박
친한
보리
중력
학력
하구
이탈리아
뚜껑
플랫
기무
가라
침해
얘긴데
내장
##지사
영화제
신분증
000
조명
좌우
샐러
강점
세입
원전
할게
페이스북
하필
은가
##학규
수원
노란
일일
셔야죠
저건
외교부
머릿속
채택
크림
대체로
떠난
북측
개방
킬로미터
최진
수험
버전
중반
##인다
이길
##년기
재난
실업
폐쇄
공모
진입
차기
일치
어째
접시
든든
김병
설립
결단
청춘
바꿔야
반전
손학규
아름답
공인
던져
##세훈
매번
틀린
패턴
사업자
필리
김영철
에겐
영수
적당히
물품
못해
신지
의상
사로
노트
조율
초청
게시판
무력
##티즌
애니
갈수록
길이
방사
주름
##나다
갈비
김민
상속
양육
펼치
불러서
디지털
영광
방치
수건
청주
올라왔
부끄러
태풍
할려
고치
대접
##아리
분과
요로
고시
생물
부채
유독
##국수
공산
이해찬
아님
이준
네티즌
영웅
파견
봉투
아부지
오토
아프리카
비정
보좌관
녹화
무언가
일기
철저히
성폭력
위안부
노리
사립
사로잡
소감
원리
권위
양념장
김구
루비
잡아
##드라
도주
잊어버
파스타
##들이
들어갑니다
충성
황태
등산
였었
이례
부총리
단맛
레드
오가
타이틀
향상
쫓겨
펀드
저분
왕자
이지
우울증
김성태
날라
독도
내역
양성
이인
질서
국토
호박
간단히
소용
접속
비닐
유력
쌓이
피로
추세
감당
이석
타이밍
고지
로비
##여정
구축
종목
드러난
손질
붕괴
성추
실체
전날
프라이
피고
출범
교육청
천연
음음음
미만
히트
조리
흥분
멋지
양자
누굴
이억
승객
유니
현역
##소년단
걸쳐서
준다는
배우자
김학
김재
스카
방탄소년단
남용
상의
북쪽
창문
쏟아
밀가루
봤었
##사고
애플
성추행
겠다
비트
비에스
신인
취급
명의
엄격
기상
놀랬
비빔
떠났
장보
단기
라스
외출
개별
캐나다
이행
전남
##라면
서해
몰아
다뤄
성실
어색
중년
갈게요
때려
상장
할래
기다릴
사무총장
농사
소음
거쳐서
손혜원
올릴
전용
대학원
멈춰
유전자
더욱더
교도
동서
진다
실검
횡령
##베이터
중소기업
거울
전파
김상
이산
재판소
코치
발효
##봐도
각오
청탁
돼지고기
네이버
부지
손상
##걸이
압도
더블유
세입자
으셔도
고리
수소
교실
고수
고집
떨어질
고무
세균
안희정
최악
살아남
보증금
시시
놓여
공직자
가져왔
특혜
##테면
김밥
주한
나아
무서워
서점
##인드
##메이션
미스
아재
##레이드
받아들일
납치
임종
준호
갱년기
##화물
서둘러
이치
이승만
소이다
비주
도우
스승
자르
조그
격차
현행
순신
트위터
절도
과실
무한
열려
선거법
양승태
향한
구해
네트
상해
허나
레몬
성명
용의자
주류
##지능
##레스테
고마워요
인공지능
서버
전이
정년
만두
직무
친하
트렌드
샐러드
가벼
대량
태권
일일이
군부
야죠
핵실
스키
콜레스테
콜레스테롤
정수
사라졌
계파
꿈꾸
무상
오염
##범죄
지켜야
불고기
하우스
포도
배울
감안
기온
주고
핵실험
양상
입양
김여정
해체
##선다
아이템
애국
물리학
처방
전개
망원
플라스
경북
형수
##대문
브로
보여준
발목
혹시나
상인
통일부
시끄러
표명
선출
아픔
##이너
멀쩡
이를테면
살피
성질
안경
집값
담보
일시
충청
헌데
실현
트럭
섭외
특사
엘리베이터
병역
가상
숙제
한다면은
종북
참모
##트리
어머나
##레이크
문젠
바닷
지르
패스
발부
요원
계셔
추경
상자
헤어
계층
더위
농도
메인
차트
콩나물
한숨
##배우
주고받
입금
바뀔
인하
서명
한국어
구원
물량
이주
당첨
중고
창고
평상시
화해
넘어갈
드려도
불신
폭염
해지
메세지
개그맨
##000
비정규직
부사
##피소
##봉주
저지른
자칫
전복
소프트
감찰
케이티
이왕
뭔데
상호
채우
##장면
금봉
결의
따님
영입
아리
투기
참으로
하여간
난민
바이러스
귀한
도심
예외
진전
들으시
동반
사만
창의
인성
초점
##로리
는지요
시급
실지
##비아
숨기
축소
쳐다보
귀국
을려고
마감
보석
회식
단장
울리
들어야
태어난
금메달
대세
마셨
##다면은
취약
선진국
아메
##반기
놀랍
에미
자구
패러
넉넉
교통사고
줄여
이쁜
당할
민원
예컨
구간
온갖
거실
소개서
게스트
올게요
재개
정원
중립
##더니
발의
재능
미역
쌓여
주세요
봐야지
비대위
공범
호기
블랙홀
간첩
유아
정돈
자면은
고도
요양
파장
해제
쫓아
으니깐
발송
선곡
아쉬움
대우
워싱
들으니까
박상
그러니까는
어떤지
기에
비우
진작
대파
대감
식감
물려
정화
워낙에
으실까
단점
나눠서
애니메이션
태국
하긴
염두
음모
중재
치우
개정안
염려
마사
##듭니다
트로트
적혀
감수
김연
행태
뒤늦
거쳐
워싱턴
내릴
천안
항목
빼놓
해방
빨래
사형
본사
엉덩이
공지
단식
공세
더더
물어볼
인문
장학
##고추
이경
화이
저장
제정
해군
사원
지문
나눴
단호
사교육
커뮤
커뮤니
보존
정경
총회
고대
햄버
방송국
신년
젬마
행성
##포르
달라질
고스
때로
##운전
케이비
엘엘
무겁
대립
버튼
취직
뛰어난
예컨대
비전
무거운
오호
파워
공중
시합
동계
디엔
랄까요
목욕
지위
##친다
건국
학업
선임
##르트
##테일
들어도
승인
잠수
##바지
문구
연수
은근
홀로
갖춰
깜빡
시달
유신
판정
어떠셨
도시락
직권
글씨
다거나
에피소
정면
햄버거
에피소드
기한
타협
달라진
변명
빠질
오바마
수집
탱크
그래두
갑작
미루
음원
결합
초등학생
농장
출시
드신
다툼
우산
혐오
브라질
억제
싱가
경찰관
싱가포르
투어
께선
이별
김광
충실
형편
다가가
도망가
뭔가요
구석
분기
플라스틱
살펴봤
매콤
이완
##북자
원단
시동
만점
밀려
간다는
의존
이뻐
당나라
대입
세자
약자
로그인
맞서
전격
급격
지킬
고는
매트
##로스
##저께
일심
려구
수위
대국
덧붙
마이너스
기원
##러지
필리핀
힘내
전후
어린이집
즐길
놀란
비자
핑계
태어났
교섭
밤새
지표
터졌
대법관
화영
디엔에이
과감
발급
간접
가계
모니
제자
패배
##스크림
투수
##무기
으셔야
두려움
복구
실적
용돈
틀렸
작사
신곡
아이스크림
사이버
나물
남겼
주스
당도
전설
고등학생
동화
그렇다면은
김부선
사단
갈래
피고인
쏟아지
컴백
피우
##스팅
망원경
일가
자발
##라지
AA
##어야
잡지
부과
공익
철거
무척
비엠
손자
엄만
정봉주
##리케이션
부탁드립니다
부각
노래방
방북
심심
불량
달콤
올바
코미
김장
수사관
억지로
이겼
보름
영수증
간담
복합
세부
지능
인턴
잠재
거두
숙박
관료
이까
마르
보편
##고리
동양
든다
신화
위대
통한
산다
설사
한양
심의
오토바이
그간
기생
방침
##가리
그럴까
국적
주머니
페이
상실
생생
찾아내
정유라
도장
호랑이
출국
덩어리
큽니다
홈런
정해져
대본
목포
이현
사표
여건
브레이크
소련
##봐요
복원
튼튼
한정
글쎄요
빼앗
탄수
앞뒤
천문학
올라와
진주
마크
차분
치사
이어질
사우
시중
이병
종료
주연
쓰러지
내보내
지분
##웨어
레벨
장미
슬픈
이야길
자문
체중
오죽
자국
저질렀
사돈
창당
둘러싼
텔레비
좌파
편한
몇몇
충전
생활비
쓸데
엉뚱
푸른
받아들여
볼려고
##경환
불안감
어딘가
대문
##빨리
과자
신세
집착
의제
##워야
이민
화이트
탄수화물
계신데
넘어갔
바이오
신임
지향
비극
착용
힌트
미투
##신저
검정
사모
합쳐
낮추
임원
차가
달랐
전술
지우
치명
향수
서서
친해
태평
포털
##구니
사령관
성형
나눌
철회
합치
##구리
해결책
데려다
성립
코미디
생계
지리
다시마
백두
끝났
벗어
두세
뭘로
탄력
대대
셨었
장모님
보충
까요
주주
도사
스프
도중
미용
적발
동해
추운
##어내
찾아왔
반론
이만큼
처지
한류
스티
헌재
부실
입자
##긴다
##바람
성범죄
스캔
창출
분당
달려가
비단
비결
유연
고의
반죽
가져야
다닌
고속도
세제
빨라
이득
##웨이
입력
밝혀졌
십쇼
악수
정규직
파이터
지검
대왕
##르르
문명
신성
앞장
이천
넘어서
모욕
##고루
곧바로
비록
황상
반도
정혜
불거
자매
였어요
튀김
솔로
오브
외로
구글
이러면
##레이션
늘어났
반장
유족
합병
법칙
샌드
설레
수장
바이올
##드라마
메신저
연료
역학
##셔야
치러
장보고
가동
세운
드라이
카레
화이팅
강릉
써요
작곡가
속보
치가
단정
수현
학년도
관행
간담회
강호
비안
소영
이공
차명
##배추
여동생
연루
던가요
못해서
돌아갈
만지
정동
신다는
분량
주저
부적절
경주
똑바로
성대
위성
음반
동창
드레스
민국
트라
즉시
줘야지
부럽
해서요
놔야
대만
로켓
충남
탈북자
귀신
재생
백신
코리아
라라고
휴식
용품
잔뜩
구상
수처
타자
자신감
납품
얘깁니다
간절
지목
기기
싱어
캐스팅
별거
수지
스웨
정착
다기
어쩜
갑작스
전선
가라앉
실명
그라
기대감
데려가
암튼
불가피
욕구
돌아올
국경
위자
게이트
스크
연상
주가
모니터
##드려
어려워요
경로
맞춤
변했
신라
쌍둥이
연동
라서요
달성
뒤쪽
약해
##타인
실세
죽여
아주머니
텔레비전
무렵
식이
화폐
반짝
상단
##다란
기득
노예
의아
화물
xxxx
골고루
지불
금강산
마비
##워크
인정받
바꿔서
일행
합법
명시
발레
영숙
##성기
신입
떠올리
교도소
이어졌
별개
떨리
여왕
어젯
어젯밤
헬기
전주
##걸리
이루어질
던졌
아깝
노동당
경상
저작
테니스
##답니다
상영
안방
끝날
세웠
양배추
빠져나가
첫날
가까워
스펙
학회
벗겨
적정
##오서
께오서
주행
증세
찌개
칼로리
범죄자
조영
스페
치유
환상
흥행
대치
멕시
무관
##산물
구치
이겁니다
핵무기
기조
##데이트
나란히
마인드
만성
적성
정규
교장
냉정
##원장
출전
##옵니까
오디션
쿠폰
통치
막걸리
엇갈
시비
김구라
위자료
우물
처장
청곡
영원히
블루
여하
터져
##김치
어려우
이순신
신장
트레이
퍼지
구형
노화
업데이트
시범
냄비
행정부
원망
잔소리
##벅지
베이스
쓰여
으셔서
맞아
현관
상원
병력
침묵
사격
키웠
다던
도리
부문
유정
상사
접하
탈락
##진영
경매
애서
심리학
스트레칭
위조
기쁨
주관
##용차
여학생
용산
견디
울산
견적서
호수
##따라
공통점
가령
공론
야채
방위
사라진
아메리카
놨어요
임무
촉구
편성
해법
개막
괴로
깨달
돌보
스위스
길거리
생태
수법
영실
체결
토지
##데이
상한
정우
치밀
백악
기무사
어저께
황궁
모자라
멕시코
믿음
김경래
로맨스
외계
친일
헷갈리
재혼
외면
다든지
아드
잡혔
##준호
학문
혈당
성남
싱글
영혼
걸어서
부사장
상관없이
##준영
##버스
박영선
모았
영남
파업
허벅지
후보자
가속
승진
문화재
링크
물가
단서
올라간
찾아뵙
경위
키스
##저나
움직일
그나저나
마신
살살
치아
##일러
찬물
트리
오로
영화관
놨는데
입사
근대
기독
알바
종로
도련
스탠
떠들
어쩌다
싱크
오우
물고기
합동
남매
커서
40
으려면
현명
회동
구치소
##투리
귀여운
경민
비틀
한식
법관
애인
정해진
어휴
열흘
추워
무용
감싸
로드
입술
##잡이
##위치
교대
다쳤
약점
못지
숨진
유포
민기
엔터
일차
##두르
향하
돌아와서
낯선
상봉
사이다
늘어난
머신
앞쪽
한나라
파이팅
한나라당
도쿄
우아
한동안
김영삼
느니
일자
지경
아녜
유감
저리
처형
날리
복무
상세
원서
##러서
구제
만져
수천
원조
모래
문항
칠만
빨간색
배구
백악관
격리
마구
미모
발주
휴게
아녜요
김기춘
수강
더래도
말려
연이
추락
##매매
태우
그리스
격려
노사
남긴
형부
애비
호위
외치
출제
행정관
빌리
유전
이진
돌려주
##일리
자백
스파
장시
차림
장학금
달달
직장인
나으
낚시
손실
야겠다
여고
유혹
취해
회전
사냥
줄까
띄워
이특
용도
망가
보육
해양
비춰
퐁당
까먹
방울
양해
커다란
피할
보여서
소릴
경찰청
다니까요
모였
즉각
책임자
AAA
구호
보궐
숟가락
시상
##만큼
삽니다
노려
줄기
황실
포항
뛰어나
박주
불교
형량
떨어져서
이루어
발전소
해놨
방송사
당선인
볼래
수립
적자
마사지
고스란히
##싸움
알아볼
수시로
날카
사각
이윤
진압
저지르
선사
교황
유시
초록
막힌
식탁
갈아입
겨냥
내면
발굴
식민
한다거나
장난감
구할
민망
제국
##른다
김미
대륙
실리
중국어
사무소
광복
화법
낮춰
냐구요
음식점
가맹
컬러
한중
훔쳐
##나나
##쟁이
공짜
##방송
권고
수다
장마
승용차
원한
##트롤
스웨덴
더라구
한겨
기밀
할라
##XX
기독교
구름
디테일
팔리
우정
##환경
안녕하
아인
##이즈
##처럼
보이스
그놈
성매매
염장
##현진
##냅니다
깨지
고위급
계정
부턴
대원
마누
선대
육만
대여
합류
구독
변동
해피
대외
착하
이래요
연어
욕망
그래야지
동남
위하
한다든가
25
간판
수제
스쿨
컨텐츠
##러워
뚜렷
이비
고교
내놔
셰프
싸웠
인문학
18
김관
의류
디자이너
레스토
줄일
##티스트
레스토랑
날개
장성택
동참
코트
야외
이소
##식간
##무지
비빔밥
검진
급식
외신
궁화
나리
디스크
망하
해임
고운
외우
카운
장윤
##유예
미성
유예
##노이
##운동
호기심
비해
여대
디스
마요
음료수
보람
잠들
조화
짜장면
타인
하드
찾아온
옵션
에게서
돌이
나온다고
샌드위치
막혀
부검
##버섯
버터
사나
꼼꼼히
공조
빌딩
실태
후연
어선
이제야
무거
이호
양말
의논
소방관
수령
아팠
파격
##로드
당부
사생활
바나나
나연
싸이
자진
재건
만찬
박계
명칭
증후
노하
놀래
고등어
오직
오페
와라
갈게
파트너
눈앞
채무
편리
해선
다라
벌어질
양국
##카락
머리카락
에에
연봉
정통
조상
마이클
음주운전
##어서
##치기
찾아볼
자격증
알파
탐사
소프트웨어
공룡
야말로
냅니다
부끄럽
정계
마십시오
무효
미영
시댁
역전
당권
향기
드셔도
비비
동상
에스에프
전적
지출
천정
서서히
광역
구별
영토
표고
출판사
올바른
바이올린
미스터
생소
상무
한자
##레인
돌아서
통진
리듬
들으셨
난감
더운
동북
라면은
바위
아셨
염색
조림
순식간
침입
간혹
감추
설거지
유인
상임위
정전
추위
진다고
힐링
##수수
대담
일만
드림
초콜
화살
나타날
유세
상큼
불쾌
식량
토끼
들으신
강렬
육성
토대
대사관
돋보
야간
메이저
관장
모레
아십니까
제철
200
자수
올라온
해드
감상
용인
최민
여름철
여배우
증후군
육군
더라면
기어
내밀
석유
의결
체질
후속
특별법
결승
온다고
지워
핑크
하노이
과시
담가
두려워
갈까요
편견
쇼핑몰
건네
나눈
##연히
부드러운
상공
질투
파도
##야지
친척
네트워크
개국
이문
청양
요약
웨이
표면
밝혀진
수영장
높여
당해
추모
열쇠
파헤
각도
실형
전역
특유
극우
수명
컨트롤
##임금
샤워
인디
일대
잔인
주상
취한
나으리
강행
접대
합쳐서
거칠
김명
희경
단가
사흘
애교
요정
할라고
환경부
노총
무침
설문
연간
##니스트
마른
자아
들어간다
부양
##리트
거친
분단
보험료
그면
비만
키울
명심
자막
웹툰
황후
후추
된단
오로지
도피
의석
겨울철
전무
특보
재발
패권
힙합
골든
쇄신
잔디
아파서
갑시다
면제
은밀
슬픔
##프라
##저것
이것저것
에이치
다신
부도
숙성
국군
오피스
풀려
마주치
날아가
인명
안녕히
한겨레
걸요
결집
동력
회수
##그라
하하하
수첩
합당
항산
##러리
여행지
토론회
반도체
잡힌
캠페인
판례
아시안
항소심
아트
부릅
장식
프린
와이파이
가위
백제
원수
창작
복도
초과
대동
부시
비즈
사소
시술
친환경
##다수
가문
바둑
아바
욕설
전담
칼슘
##니어
견해
충족
오늘날
움직여
이산가족
떠날
방영
##무실
과반
셀프
시트
##받침
##태우
일수록
일으킨
베이징
불어
흰색
장례식
유시민
약혼
정정
선동
현수
스캔들
아랫
재판관
스타트
식단
색다른
입수
튀어나
동거
분할
따라오
가벼운
시정
취득
걸까
##테리어
신규
려는데
더구나
배드
케어
조지
최영
표창
##든요
모양새
임차
##버렸
올리브
##풀이
마누라
깻잎
런던
모범
가하
실려
목격자
오페라
남부
선제
정한
작정
바빠서
모용
물기
##팡이
보컬
성사
양측
조희
##여행
##프리카
분해
어긋
윤상
키운
살펴볼까요
아티스트
흡연
알아들
유쾌
해운
허허
포토
##카드
찾아갔
스러웠
와우
꾸며
서기
열기
지침
영자
인격
동행
유머
붙였
올게
일구
한도
집행유예
모인
김주
로마
이력
도지사
조수
면세
수급
동부
서장
인멸
털어
관심사
구사
##으나
교감
소인
두루
발매
위법
제로
거품
유용
##스틱
구천
뭘까
불출
어이구
겸손
사망자
펼쳐지
는디
늘려
입건
요동
포스터
남북한
고선
흘러가
도우미
노하우
묘사
배수
현미
벌였
조종
하태
취했
화가
라던가
무산
신통
쓸데없
당과
집사람
여하튼
기뻐
버려요
상습
약물
정애
퇴직금
다룬
해변
재미없
거북
낙태
당초
몰리
검출
나갑니다
두꺼
특권
##그래
걸려서
융합
##먼스
목록
부활
원고
알아듣
더워
맘대로
비린
해킹
##멘터리
최저임금
건드리
김남
컨디션
파이브
더더욱
분식
산다는
의대
공화국
보급
자택
빅뱅
야야
오메
오세훈
휴일
사회주의
진이
다큐멘터리
개설
분실
의해
줘도
낙지
보행
관세
버린다
송구
수감
질량
다투
연평
##몬드
블랙리스트
블리
소형
쪼개
##스키
모기
이부
김태우
김한길
공구
퍼포
##보드
퍼포먼스
성숙
지완
여신
책방
##엑스
공장장
공군
석방
버무
번지
처제
공제
오를
올려서
##라이트
알아봐
신가
일당
이석기
차가운
그든요
떠오
전년
##미애
임대료
응급실
송영
확진
##캐스트
청해
제의
보스
촉촉
총수
13
노회
성취
시끄럽
##외선
내외
센티
탄도
##박스
선거구
타워
우상
팟캐스트
삼각
해경
인테리어
포스트
최우
##트로
실까
할께요
발상
으냐
심했
##겨서
미술관
연세대
계엄
전단
푸드
존재감
민사
벨트
속이
이화
여쭤볼
중성
공고
난이
산하
아삭
##십니다
누님
다친
돌발
점차
고인
무인
박종
증말
시금
이선
##릭스
복사
솜씨
시공
체감
이의민
관건
레시
최후
영양소
세진
매실
헤드
대다수
본회
아플
거슬
실효
타당
##시스
실례
입당
천하
예술가
구이
궁합
무더
미뤄
소소
싸울
포즈
국감
돼도
신데요
총괄
뛰어넘
날려
분비
오라
고가
권유
망치
배터리
복권
원활
유경
내세우
간편
몰입
지루
차선
선관
오버
외롭
중동
끌어들
위상
김선
만세
뒷받침
지성
##타이
논평
제왕
터널
각서
퇴원
편히
매매
앞둔
옥수수
우회
호감
경제학
공판
로스
소파
파인
국세
손흥
아닌데요
갔다
단원
반가운
조그만
미인
삼국
수목
##렉스
아이큐
농업
옥상
고영
모순
써도
해수
손흥민
되찾
이국
지낸
##으며
긴장감
귀여워
비즈니스
머무
실감
인분
햇빛
이준석
담임
죽일
탄압
사직
의정
##걸음
깔려
무사히
일리
입국
##더라
배후
이달
달린
익히
해줘
은근히
우스
##로우
끼치
딸기
지옥
터키
가져와
미네
잔치
유니폼
사신
사설
클릭
흑인
드나
위축
불매
손톱
제게
기다려야
대남
문득
싸인
절실
금년
유언
낭비
달하
데스크
매뉴
씁니다
지장
플랜
메리
끌어내
둘러싸
괴롭히
매뉴얼
내정
차근
비벼
일세
필스
##놀이
신원
업종
행적
비주얼
과하
나비
암살
행진
나타내
구미
연두
증여
그런가요
엉망
온몸
의리
이마
장모
전신
##저트
디저트
막판
메달
소홀
대상자
아리랑
깨닫
열릴
휴직
##라는
정직
칼럼
자본주의
사령부
동지
다가와
바닷가
동남아
요고
취재진
미션
팽팽
##붙이
기금
양극
어려서
까다
당기
분담
심신
장갑
바짝
부엌
식용
교차
침몰
##스트라
노회찬
창피
화나
계급
구절
본다고
##앙스
잃어버린
가중
뉘앙스
버릇
연예계
베란다
김병준
뱃살
초조
출생
품목
삼성전자
체육관
즐거움
강수
기르
먹여
할수록
해독
화합
가급
이은
이야말로
농촌
뇌졸
휩싸
가실
걸립니다
엄지
교재
설인
안주
윤주
조세
이심
갈지
맞춘
이목
해상
걸러
과잉
김준
대강
대놓
사죄
씁쓸
씨앗
제법
##어먹
내려서
비치
미성년
소외
주무시
각별
던진
랜드
장자
어떠신
당뇨병
달아
자자
접종
넘어지
무휼
##가스
대인
선박
스킨
슬프
진도
케이블
금주
을수록
이슬
줘라
특기
횟수
##난다
가죽
교훈
그지
##우드
커뮤니티
최태
##조리
마음껏
불려
제대
우엉
장가
가급적
거늘
경희
굴러
들기름
보태
##퇴근
나올지
영선
오지
탑승
전화기
어두운
단축
땡땡
복장
였잖
들어선다
상당수
도희
류현진
오사
배고프
누적
으리
정밀
시일
안팎
죽였
플라
했을까
보험금
그렸
자부
타이어
기호
동향
인종
최경환
항암
그제
했으니
기집
설인귀
시금치
매입
야단
##으니까
했었잖
단골
발행
생전
업적
크로스
하오
해져
월화
톡톡
고마운
오피스텔
망설
민중
정중
##우마
걸어오
관념
별다른
성당
##리티
활동비
오이씨
의구
가져온
트라우마
속옷
쓴다
괴물
기쁘
유의
파문
황도
줄어드
감지
말투
슬퍼
영리
확고
하태경
갈려고
섞여
김치찌개
셋째
손주
초보
키로
요금제
이정현
소집
중학생
집계
##부모
복희
견과
전수
휴지
일으켰
중지
농민
워크
원주
차질
##어준
아이씨
나설
이원
돌아와
구급
##숭아
내버
유난
적대
수거
생명체
경복
독소
두렵
땅콩
죄인
추첨
##소득
독립운동
기념품
국무총리
유산균
김어준
났었
정진
커버
라이프
천정배
생방송
업그
찜질
팍팍
##마마
업그레이드
교정
센스
신비
총재
기성
최상
후퇴
##시경
라요
면적
선장
섹시
우발
정임
친분
페스
일본인
리터
말린
상업
열풍
운동장
투자자
의구심
버거
제약
배고파
다정
전교
전북
드라고요
생겼어요
래도
신도
이혜
입대
햇볕
사투리
위력
잠수함
뇌졸중
강인
운용
위생
태희
레시피
유익
##커스
돌아다
임대차
못합니다
태준
##조림
살아온
갖춘
서열
세이
제압
최강
알레
커졌
돌아갔
고성
김형
업자
횡단
한테서
김성수
오락
이가
태워
해안
아파요
맛보
미혼
밝힐
리라고
엘에이
조계
드러냈
시달리
##모습
##풍기
숙이
꼼짝
벌인
전방
탈퇴
아메리카노
국익
라운드
고립
마포
하위
마냥
위경
좌절
오프닝
벌레
성주
오렌
환호
사후
양지
웃겨
넘겼
파고
일으켜
변론
보약
아일
축적
스러울
미워
클린
선보이
가발
관할
구단
나영
맞대
정했
학위
남산
먹방
아껴
퍼져
##어른
아무렇
정동영
강간
널리
상암
입지
혜영
기내
터진
기울이
14
법리
재즈
이라던가
무궁
박용
항공사
경복궁
오렌지
깁니다
몸매
블록
실용
##시마
##퍼스
노벨상
출고
파동
틀림없
잊어버리
기침
배정
상환
냐고요
변한
줄줄
파크
꼼수
후기
##아웃
기생충
열악
태호
프로필
인영
걸쳐
고려대
해산물
다녀올
뇌물죄
붙인
였을
조약
##병대
소극
원치
속상하
구라
리모
비켜
##엠에프
가신
나뉘
안성
최신
시립
간사
들렸
협찬
엔지
피싱
활짝
면담
무덤
미약
요가
포괄
##하루
소변
임마
점령
통로
기집애
고조
달렸
심경
탄탄
한대요
보훈
죽인
드려서
복면
승계
위헌
전지
이완구
낭만
선명
양복
총각
파탄
또래
유서
표결
합성
기왕
모호
박성
선관위
단절
손잡
스리
양형
짬뽕
천장
하청
##셔츠
지원금
무서워서
김진태
반사
병행
심부
제사
살아왔
여길
태후
##일으
아이유
불러일으
스피드
댑니다
발령
##바다
아이엠에프
어느새
강해
미나리
첨부
탄소
간섭
유효
출퇴근
설득력
베이비
조현아
어쩐지
보물
익혀
협약
보호자
난방
소상
엊그
진진
처해
통역
모녀
소망
파란색
백두산
겁나
매진
뽀뽀
뿌듯
과태
하곤
주희
참치
김문
먹거리
미수
복용
추이
식민지
초콜릿
수저
우습
용납
탁구
내려갔
합격자
뮤지션
나인
회피
남동생
득표
버립니다
어울릴
스크린
깃발
살균
이견
진수
##소문
##슈타인
앞장서
듬뿍
신조
이면
익명
과태료
세수
은폐
증권
촉진
휴전
아야죠
연쇄
종업
##퐁당
퐁당퐁당
영주
다든가
독점
스릴
심화
장남
최재
다이아
다급
버텨
서구
쫄깃
엘리트
광명
불로
주범
못지않
본능
파프리카
해두
등록금
구성원
기둥
닭고기
사셨
사춘
음식물
메뉴판
엄중
장외
편해
훈훈
시그
중점
##민턴
배드민턴
자외선
진동
친문
쿠데
진행자
멜로
추미애
귀순
보살
##갈비
시상식
도마
명성
부하
여진
##네요
지나간
미네랄
모은
반점
어머머
에프엠
묻혀
##멘트
마라톤
겹치
선다
일체
추후
밝혀야
맞출
빼돌
체온
통째
효력
신청서
공감대
공교
밑간
성문
와도
이끄
저절
임종석
아랍
하루하루
녹차
담그
성능
출구
위해선
상품권
가공
래퍼
##파리
가져갔
막대
바삭
블로그
절박
쳐다
##진호
려면은
못한다
두르
유대
치과
김한석
낯설
사옵니까
지각
타입
이낙
체조
학점
김지은
종업원
상정
손녀
재선
절망
정청
나온다는
어린아이
할지라도
깨끗이
당은
박탈
틀림없이
줄어든
근수
##와이
상고
증폭
##적으로
건져
16
##차근
김혜경
차근차근
17
커질
대국민
말라
선행
악용
인방
표지
해준
느냐는
원자력
단단히
이루어져야
건전
하트
##글라스
김소
새콤
서너
손수
부딪히
쿠데타
이낙연
갇혀
소라
장벽
장교
하체
오메가
명함
소명
송금
늘어날
미성년자
부풀
인선
특례
그런데요
뛰어들
사이드
이스라
빌라
젓가락
현황
##그러
전해졌
빠져서
사촌
형법
거긴
복숭아
빈곤
호응
시킨다
물러가
둬야
불꽃
홍대
가담
묵묵
소린
소모
주재
훔친
보호법
집무실
##박이
계곡
방화
잘난
##아보
강필
기후
단풍
비더
인삼
임의
폭언
내려왔
신설
유공
제보자
심상정
변해
손바닥
의전
##의사
안다
저축
중개
흉내
희한
조식
하반기
사춘기
꼬마
무작
윤회
김승
화두
##제원
궁극
김흥
낸다
녹색
살릴
은조
해집니다
등록증
잘라서
볶음밥
마친
끊이
생리
업소
열매
주시
소리야
이천년
방청
일련
전경
일으킬
500
대폭
몽골
외교관
국과
손목
연일
재심
##숭이
보조금
기법
함정
간격
망명
선상
연차
위임
##아찌
##권력
그림자
동북아
발병
이어진
사물
시한
스페셜
변비
##킵니다
저절로
배종
석탄
이강
곰팡이
라돈
려다가
이보
쫓아가
특급
내버려
금전
선포
워너
한화
휘경
외국어
경대
골반
남측
망신
전염
차이점
라니까요
정청래
디엠
랄지
조원
드렸었
테이프
반환
부디
선조
스런
어묵
##끼리
양당
검경
국악
흔한
##항공
걸려요
구현
다물
시승
재주
재원
통행
행운
문어
슬슬
전분
주유
징용
척하
##칩니다
난다고
네덜
이학
주최
##네시아
끌어올
네덜란드
변함
세븐
제수
##데기
중순
거니
옆집
품질
면세점
김원
주역
##높이
동전
야생
적립
천지
터질
한방
웨딩
쳐서
##린다고
모른다는
##각각
어떠신가요
더냐
밀접
시래
싱싱
예순
준영
팔자
효능
달력
때렸
뻔뻔
속내
찹쌀
##라기
개연
구수
명문
필터
헤어졌
선글라스
윤서
팝콘
##책감
단체장
여겨
일본어
새겨
##보내
경희대
갑니까
조장
조폭
##크림
거지
웃긴
퇴진
특활
호두
반납
부가
양산
연하
절약
24
교복
목걸이
미련
이조
캠퍼스
올라서
지나갔
다뤘
맞물
맞췄
수호
오케
지붕
불출마
도청
한상
해장
##벌이
조용필
녹취
려던
박찬
백인
어플
추상
프랜
어플리케이션
경유
비준
응응
조개
초코
해물
##살이
메이크
응시
정준영
주어진
승무원
테마
해온
##토리
그러다
금고
변형
줄여서
##회사
살아나
보라
상향
장거리
관절염
무능
성희
카리스
##사랑
원했
이희
탄트
께요
엔딩
일산
다가온다
기운찬
노트북
프라
언론인
보일러
이스라엘
과세
아비
옹호
조례
##리포
판결문
인도네시아
귀사
심층
팽창
참고인
궤도
덕수
도달
돌입
이광
끼워
대피
소자
고독
슬쩍
##석희
소설가
조영남
카리스마
김희
마쳤
조경
춤추
개인기
동굴
소란
잊혀
취록
일어서
##머님
원산
하버
##국장
어려운데
구청장
독감
이한
후진
##시효
##스카
가져올
국밥
노태우
분산
여든
퇴사
가산
인질
조문
노동부
유착
장부
촐랑이
##구석
붙여서
셔요
헌신
활력
가출
음란
제곱
##버린
공권력
연맹
차마
포용
했으면
쏟아져
다던데
눈높이
일흔
텐트
한심
형수님
해드릴
본래
비노
직선
걸사
담백
신사
이긴
신년사
인프라
자구요
노란색
무고
벤치
예산안
문젠데
상궁
어딘지
모처럼
버려야
연방
영하
저래
대표단
지나친
하난
후유
기념일
금연
벤처
보선
일루
크루
##셀러
미국인
우릴
자란
찬스
친서
시래기
강국
경색
당론
중시
##습기
개미
동대문
미흡
서초
쌓인
어후
조희팔
꼽히
대거
립니
반말
임진
##르기
부친
물어봐
표출
하튼
의외로
꾸미
별일
섬세
탄산
헝가리
골라서
바래
봉지
장문
지형
착수
고은
라라
소행
유난히
산불
술집
얼핏
흑수
##토록
고비
사사
우러
정반
교원
원격
환기
동선
신념
안종
지저
폴리
##설주
떨어뜨
이뤄지
성찰
##창호
##단체
규현
담화
암흑
초선
##이면
양육비
표고버섯
어버
유성
지뢰
치마
##생긴
다듬
탁월
세울
싸워
아스
어미
척추
배워야
다지
순방
워킹
원유
풍성
반란
이해고
미지
분배
이오
초상
힘듭니다
희생자
엇갈리
정교
청사
판타
어필
유부
인과
홍삼
반가워요
들여서
추리
떨어진다
태평양
휴게소
뭉쳐
스텝
인척
관광지
대놓고
드릴려고
중국인
드셔야
가셔야
##브리
가치관
방사능
당직
미처
##피아
1000
이의방
누진
상반기
실물
진다는
##지대
민간인
배종찬
단편
##키스
명목
미일
느이
비엔
사막
원작
출간
힘든데
난이도
몸무
몸무게
파주
아인슈타인
마술
하준
효도
경사
식욕
추격
터치
##티나
라니요
지상파
어버이
우파
이안
학창
화산
##저리
월화드라마
대추
세일
어둠
시간대
공무
냉전
대마
마스터
미끄러
푸짐
##갈이
김흥국
윤종
원로
들깨
온다는
공존
더워서
돌봄
폭포
##은행
돌아간
영변
다니요
전기차
김규
네에
대주
드물
실정
재학
정쟁
통신사
가맹점
든데
멘토
중형
이라크
고루
고대로
일식
##관계
재건축
백지
벌리
보드
유재
인건
중진
탐지
쫓겨나
대면
수렴
알렸
처남
갑작스럽
심부름
후유증
고난
구구
아미
우측
마찬가
모금
미아
반반
창원
노려보
느리
발길
여깄
저소득
돌려받
전투기
자부심
안종범
국기
후쿠
강점기
성희롱
악마
일선
자니
주력
드라이브
두드
려다
전한
아이콘
영양제
기미
죄책감
퇴임
하와이
훌쩍
그르니까
별장
상추
친근
테크
의료진
건수
공영
박유
심혈
예선
멀리서
강정
다룰
라던지
모색
일환
국사
아카
안동
헤어진
##다지
##들여
##북도
따위
임차인
장아찌
대리인
후원금
법대
싸운
진한
첩보
사라져
각지
성완
성완종
강용
베리
송이
시세
우편
찬반
캠핑
컨설
특강
행방
기력
현아
그늘
질의
블랙박스
가혹
애쓰
애써
찌르
나사
재배
전송
넘어오
벚꽃
하여금
안중
자랐
전도
##다임
패러다임
정반대
미숙
방정
약국
조미
파스
##유럽
가져갈
정재
줄래
카탈
한결
모른다고
견뎌
납부
숨지
원천
부끄러운
넷플
라뇨
서두르
신하
봐야겠
클린턴
넷플릭스
경보
기강
새삼
은혜
해내
##아먹
경대승
발걸음
쏠리
양주
인조
##진우
##부르
##해하
무식
보냅니다
잠겨
달려오
원세훈
보위
예보
춘천
##리즘
구했
묘한
분장
이세
전과
결과물
공소시효
명곡
시야
유자
##세스
가주
병실
성균
종결
호호
성균관
감칠
공분
드문
무단
소나
신당
지치
그래픽
어쨌거나
생겨요
노크
보강
생깁니다
수배
승차
진욱
최지
치워
펜션
낙마
대금
동결
숙청
야심
조윤
명확히
김양
신빙
효자
인건비
가마
초미
포로
국세청
공평
세린
심문
천문
국회법
대수
폭파
도끼
모형
사주
인슐
진통
부위원장
메이크업
인슐린
21
병자
본색
순천
외상
참외
챙겼
투약
풀어
해치
입니다만
경호원
관악
효소
김영란
취할
닥터
아씨
일회
적시
폭격
방역
부근
서부
임상
준이
천사
내비
누워서
번쩍
여정
협동
혼수
골프장
귀하
사범
조롱
넘어간
어떨지
간략
네놈
사거리
설령
잣대
##테스
출연료
안보리
스토어
인체
특허
풍선
네모
회화
고래
귀족
놓인
뒤지
첨단
##려구
이건희
이라던지
동갑
득점
뭉치
용역
윤기
하얗
학살
생물학
지저분
고작
광해
맞히
불길
유영
침투
속인
열병
응하
##갱이
김정남
임대인
거세
부수
저격
티셔츠
프로파
대장군
전시회
부지런
동포
무심
실화
으십니다
추행
포럼
하수
해져서
##밀히
##돌이
외계인
기습
시아버지
일생
라곤
야근
약재
챔피
강용석
내기
놀이터
루트
민영
배당
내려와
가습기
러닝
스푼
쓸쓸
제명
포스
복부
서면
지켰
비린내
각국
장래
버무려
긴데
망했
열립니다
자정
흘렀
공안
길러
서랍
자질
각하
누굽
오너
평택
증명서
미용실
갈리
기일
기쁜
만능
바치
청정
알아주
불러야
불거지
이룬
족발
현송
##차이즈
생겨나
아름다움
리스
베개
쭉쭉
##기사
##불리
리얼미터
미역국
프랜차이즈
방한
선풍기
소름
태산
빨리빨리
공연장
전라
흔하
털어놓
강성
저널
천국
클라
화내
쓰러져
멜로디
역설
타고
필름
달라서
꼬박
당면
원본
표기
세련
##두리
공시
남다른
인내
찍힌
씨름
회고
후손
보이콧
머니
신변
활기
국산
기숙
넥타이
박이
숨겨진
동맥
연호
외식
적금
##내리
##를린
이건우
해드릴까요
권장
빌보드
연근
##같이
띄우
모드
못해요
언덕
법조인
끌려가
누굽니까
깊숙
신재
펼쳤
##저스
비주류
꺼지
려나
수차
중산
코끼리
팩스
감금
왕후
충북
어긋나
카탈로그
건드
남경
전라도
##트륨
동물원
대장암
소유자
쇼트
사우디
이호선
달군
뜻밖
바랄
전례
대한항공
으려는
목욕탕
강동
꺼져
드니
숙주
시티
임하
다가왔
감칠맛
끄덕
옮겼
믹스
순진
정개
해낼
##줘야
떨어뜨리
사나이
김포
답방
차종
상장군
다짐
생수
한눈
간직
막연
송치
유심히
##창기
한다구
마이크로
장시호
노영
렌트
착륙
##성이
정현
지킨
한다니까
부딪치
경상도
근력
낙하
노숙
부재
최룡
##여겨
##런스
당선자
최룡해
미주
시행령
눈여겨
알코
육체
평일
23
도성
예체
항구
혁신안
도망치
예체능
그다지
들러
김광석
냉이
동그
앞선
##쳐나
불러요
본다면은
흘러나
돌이켜
유공자
견딜
어치
과다
기출
단다
막강
하원
##민석
스케이트
생애
스며
안건
놨다
앞당
용감
이피
##은희
이래야
공신
대검
미워하
슬기
주권
갈치
돌려서
동정
두리
부합
안무
엘지
유진
건의
놀랄
사탕
정찰
최충
패딩
강경파
베스트셀러
움직였
본다는
여전
상상력
문희상
공백
대중상
이태리
잃어버렸
꼬집
농성
만기
문젭
볼게
줄려고
##무장
고렇게
비추
원가
재현
##마크
결렬
드론
성우
연녀
##낸다
진정한
꼭지
맡길
아오
압축
타결
##조사
리포트
강현
문정
진하
해진다
##티벌
그래프
스트라
토로
그니까는
페스티벌
비장
라이트
재물
학급
플랫폼
무궁화
검장
구운
닥치
무난
뻔히
성수
함량
##리우드
##배기
채팅
##클럽
MC
모험
모텔
스파이
애청
장단
재질
참담
국과수
알코올
끼어들
물음
침략
칼국수
엊그제
기세
대의
전향
점프
에이아이
이종걸
군산
김윤
나르
소진
잔혹
한옥
주저앉
갱신
군수
도모
우동
이회
발명품
잡아먹
금품
상생
스톱
왕실
칫솔
나마
나아지
설도
채권
라는데
센티미터
깨어나
이대
##라테스
가늠
면회
비워
식빵
영문
호칭
바라본다
립스틱
바란다
위암
추론
파라
데려오
강변
김유
세무
송환
전처
특조
김세
노년
여우
##구만
##다르
##교통
노안
돌연
떳떳
빌미
허물
슈퍼맨
고것
기증
박경
서영
싫어
쌀쌀
여수
이색
장영
장담
홍고추
##두부
예술단
아아아
대통
동쪽
마법
안겨
우호
운송
일탈
정류
책정
##업자
가격대
놓쳤
볼께요
아흔
정점
지으
##사이
프로세스
김남국
여주
원피스
출소
훈장
##제품
개개
공표
미부인
직진
##톨릭
애플리케이션
까만
뚝딱
일전
##기야
받아들였
항공기
어이없
감탄
골치
오찬
유흥
경비원
사문
소박
숙명
일괄
행각
장인어른
거란
군단
서경
채리
푸틴
혜빈
##혈압
오케스트라
열병식
60
나트륨
벌떡
출두
으셨던
라이벌
제조업
뒷모습
서강
암호
올케
획득
스코
예수
잡채
절여
지피
질까
환수
계신데요
아일랜드
뭔데요
세손
원숭이
형평
거슬러
비로
외곽
자요
잭슨
반대쪽
매운맛
꾸려
란다
송파
수확
오마
이야긴
책임감
요리사
안타까움
동요
돼버렸
원합니다
그치만
70
만듭니다
미묘
재직
과거사
챙겨서
찜질방
##어로
콜라겐
부러워
시시각각
한양대
깡패
대포
유능
##쓰기
으셨을
된장찌개
권하
페미
##소연
##레인지
##스턴
재미난
놔요
누락
베를린
오빤
원료
뜨거워
고고
문법
섞인
유민
이언
##NS
##이버섯
급속
무진
박해
일간
재워
총기
폭풍
훔치
##테크
으라는
알레르기
김해
잔데
재욱
절벽
지방산
배달부
아쉬웠
최진봉
느닷
등기
유주
인쇄
초림
어려워서
식용유
장자연
히어로
##쳐야
골랐
사극
어의
참전
피스
흔드
못난
김우
액체
지체
체류
주유소
김창
도영
불륜
서청
약화
정복
##산부
동성
육이
취해서
##세이
관중
근사
대군
들릴
뜻대로
선별
세로
##넘기
기록물
정조
크리
함유
혼나
##거래
데쳐
두근
엄니
이체
장하
찾아간
간다면
강좌
껍데기
돌릴
라두
모신
예우
일러
##버니
##습니다
메이커
구먼
기막
매치
서쪽
이과
갈릴
소품
시안
종사
지섭
채취
편향
만든다
물어본
지니
코코
오스트
정장
침착
테레
##외과
마침내
로직
밀도
원정
지극
헌정
리라
정호
칼집
끌어안
어리석
간병
뒤따라
상권
시효
으으
자넨
짤라
초창기
총무
##출산
건축물
이룰
장어
풀렸
한진
##하니
으셨는데
혈액형
내걸
도진
리설주
볼일
부결
서인
서훈
외도
외할
정산
정태
친다
협의회
계집
노원
노골
석류
애라
원만
지기
##린다는
##레이터
다녀와
케이티엑스
서청원
객실
결말
놀리
사관
이시
준다면
청국장
체면
추궁
흘렸
운동가
시킬까
본회의
남미
층간
튀기
합니다마는
스릴러
돌봐
##세포
세탁기
스피커
바램
번복
빼내
상륙
센서
소독
시킵니다
장이
##누이
공문
빵빵
수월
착오
청약
##모사
김문수
명상
흘려
사대
엑소
열무
중화
지낼
##사람
보여야
일제히
국고
외무
춘추
올려야
묵묵히
모실
소매
이타
자작
눈썹
들렀
금수
떠서
절로
점유
중부
텃밭
파손
포르
연기자
뉴질
세습
지친
##영미
스프링
뉴질랜드
땡기
케미
살펴봐야
당혹
더덕
분포
붙들
사료
##코인
방송인
가슴살
대중교통
고칠
나원
남학생
복당
부스
소셜
예단
왕따
하룻
스카이
두들
명소
처녀
로맨틱
맡겼
선의
지망
환산
스케치
입주민
할려는
김관진
과언
승마
정형
콩팥
탈모
파기
합창
##재욱
일본군
비트코인
SNS
미쳐
방도
쉬워
##므로
이건데
공산주의
절도범
이현종
고걸
깨우
매각
설비
커요
반대편
오라버니
강희
울음
##포인트
발라드
박유천
반격
복싱
아녀
위선
유입
##마음
##콜리
사도
색소
신생
워터
터미
후계
찾아와
어우러
집안일
떠올랐
구한
단추
레이스
양현
항쟁
화끈
수차례
난동
용량
전현
하차
계신지
객관적으로
마루
불렸
아찔
이집
중앙일보
기획사
시그널
문젭니다
강북
만료
바늘
액젓
책임질
라면서요
당사
뱅크
사운드
언뜻
울컥
초래
##볶음
기억력
느껴졌
물러서
클래스
배신감
여고생
균열
미녀
좁혀
처소
행수
##대기
공자
괜한
맞혀
반역
변할
속하
스텔
##폐물
무지하
이슬람
비엔나
기숙사
이집트
설날
재작
헤이
그땐
농가
블라
손발
신간
젤리
폐암
플래
한대
휩쓸
##플렉스
외로움
판타지
공예
뜬금
발가락
북소리
승자
심근
청계
##워드
##겨운
찾아와서
대부
##재현
걸릴까요
넘버
노르
노폐물
마카
배급
비위
수희
잠자
밝혀내
주무세요
박용진
왕조
성별
온통
전사
진국
들이대
저출산
추출
에이에스
김기식
날카로운
개개인
22
그겁니다
법사
실습
부드러워
김연아
가왕
내수
배포
쓸모
얼만
의총
잘생긴
획기
사무관
브로콜리
결재
장착
제어
티저
##타리
내분
망가지
발자
법제
대기실
동국
말기
빡빡
억압
저놈
주세
추징
건국대
몰카
애호
연유
위증
헤매
홍수
후임
태양광
로스쿨
정류장
로고
줄지
킬로그램
기아
결함
기피
사방
수교
휘둘
##일드
올라와서
호흡기
붙잡혔
과격
비누
##버트
그런다
생긴다
국공
급증
나눔
시체
얘긴데요
계셔서
렌즈
제자리
챙길
회관
##른자
정치부
끓인
멈칫
박자
북부
전액
무서웠
윤종신
비로소
사양
알콜
끓일
사지
악단
연탄
느냐고
고만
다방
뱃속
버틸
빌려서
시식
존엄
주물
진숙
차갑
풀릴
화력
##꿈치
금감
동조
리조
무비
문신
법상
슬로
쓰였
업로드
전망대
줄줄이
조윤선
재작년
검은
사체
포크
살아갈
소이까
본명
서정
출격
하룻밤
강대
그릴
노랜
사명
순대
스터
전성기
부담감
선보였
소용없
그깐
노린
뻔한
내려온
냉동실
그레이
맡긴
속마음
즉석
챙피
보안법
관상
루머
왕비
이온
전대
청바지
포커스
주의자
녹여
백종
얼룩
이송
장려
탁자
한문
해져요
흐흐
지만은
이어집니다
27
공교육
유라
전진
정윤
감사원
극한
분주
비형
소심
유방
임박
전임
##현정
자치구
충청도
간신
거길
실전
아퍼
안락
정두
해봐도
##미리
조사단
스트라이크
로직스
김보
대항
엘피
여쭙
전월
트레
할머님
##그리
고심
놔서
늑대
뚱뚱
비겁
수순
슬리
안다고
예뻐요
하오나
묻히
배기
스톤
종편
집필
풀이
##차림
XXX
강서
개척
거느리
명동
선두
진호
##소니
사업장
묶여
믿기
받쳐
불린
연소
근접
망고
요법
유에스
절친
조연
운동복
설명서
기록부
레이더
느닷없이
갈색
도울
재해
조양
파산
했으나
빨개
의약
##리안
제작사
제이티
오리지
고충
랭킹
부통령
분권
온천
착잡
카풀
주문서
견인
위쪽
한약
좋아해
기우
김은
로워
소멸
일화
##조합
그리워
기하
당구
얼만큼
잇따라
중위
맞춰야
성대모사
트레이닝
근절
단문
당대
된대요
산재
소나무
월간
장동
회신
##크로
인지도
스물세
물어봐야
커뮤니케이션
글쓰기
다라면
빵집
사리
주임
타살
탐색
팔렸
한입
그래그래
사업가
커피숍
외환
한파
바라볼
장기간
고품
누수
리서
재계
주입
협업
화분
##처분
어느덧
개수
놨던
똘똘
부속
성경
안쓰
환율
##지부
책임져야
김부겸
고게
돌렸
물체
실컷
입체
##랭이
철학자
떠올려
이국종
이언주
80
맛술
정주
정해서
커진
프라이머리
고종
골다
기장
막아
바디
속속
정몽
툭툭
휠체
발사체
카운터
휠체어
기류
시국
이식
절제
초월
파출
했어야
들어옵니다
나이다
경과
백수
선선
위태
검사장
##는데도
챔피언
그루
더운데
로또
막막
비선
선비
잠실
절감
청하
통영
핫라인
확성기
집중력
기내식
본데
양만
젓갈
해냈
##벼락
성적표
고시원
동호
마블
박병
부기
사당
사부인
새별
옷장
지쳐
참으
코믹
##계선
이해관계
해외여행
피아니스트
고쳐야
몸살
휘발
##꼬리
국내외
저소득층
곤충
극심
분수
왼손
이적
홍문
받아들여야
음모론
진열
그러믄
가이드라인
관례
바가지
비아
뺏기
열망
우위
재래
재활
김의
대두
따끈
리스크
배꼽
법치
본선
일주
질러
충고
공기업
무작정
내란
독대
발탁
스틸
스폰
기업인
연주자
리코
부치
살까
성동
제스
했는데도
무너졌
날라가
미스터리
동현
안진
일원
접어들
##공증
뒤집어
골다공증
고아
다져
론가
불명
외압
요일
튜버
소개팅
송송
영미
단호박
두께
##키퍼
이가희
개각
눌렀
만취
반칙
분자
어기
인맥
참나
허술
어울려
육이오
기저
마그
핀란드
해줄
##미나
강압
골키퍼
서브
안민석
애틋
핏줄
##레마
##꾸미
정보원
이어져
사정관
다름없
불거진
끝냈
번거
비명
수식
곱하
그이
당겨
지끔
화사
##구멍
능력자
세워야
컨설팅
레인
방카
총체
표적
체크인
세탁소
무거워
노른자
동명
봉쇄
수선
나이트
남아
대역
엠알
역풍
인단
펜스
관리비
들려주
초록색
거취
딜레마
매너
조짐
튀겨
장윤정
권익
논설
센타
우라
유총
이철
핸들
아버진
정세균
태권도
사각지대
개운
로망
시력
정루
##서요
속상해
돋보이
유동
쪽지
##스럽
아이러
달라붙
현대인
오프라인
현행법
해운대
무늬
박은
방점
상주
직책
항복
##시장
##맘때
내려와서
28
두껍
맹세
영세
찍혀
침범
학술
한우
##위원
##반찬
관련자
비서실
내시경
맛깔
붕어
허구
##스레
더우
맨들
물류
산타
샤이
손쉽
찍히
추자
치안
##부장
고속도로
보미
심재
씹히
알뜰
임용
중복
포지
폴란드
##라미
##방통
##뱅이
골목길
패러디
신통방통
대령
도도
발암
보전
쉬워요
안기
스트레이트
까스
상수
수염
심려
여파
전범
정은
직면
코딩
넘긴
선입
으믄
춘희
한층
##남도
따라와
프로파일러
리서치
공용
공과
안목
연정
지디
현충
고마웠
즐거웠
공수
광범
나훈
너머
매도
반쪽
속성
심야
안부
유로
찔러
##혈증
다녀요
다녀온
소득세
다이빙
친일파
다이아몬드
이빨
정문
지어서
##통수
##힌다
모진
백조
조심히
컬링
날씬
문무
바리
방통
처하
케익
향했
골절
금속
달인
물갈이
복실
오신
요령
자취
재범
탕수
혼내
##섭니다
##깁니까
에스엠
사업주
교섭단체
나훈아
마켓
박태
##트랙
스러우
바깥쪽
근원
뒤져
사시
외화
차차
홍영
##치미
내년도
해장국
기껏
먹히
부축
송혜
홍진영
으신지
최우선
경합
세워서
영등
##지방
##린데
##마리
##러기
소년단
하버드
개조
다간
땅굴
사학
사임
선후
원썬
호사
##조선
곤혹
따질
서적
성악
수군
여잔
지법
패럴
어떤가
꺼냈
독성
산림
순두부
시속
양도
일인
계열사
뜨거웠
결성
덩치
배임
베타
삭발
예언
자위
직결
쪽파
칼칼
학계
상암동
살균제
네이
면모
처한
##질러
점점점
구부
받들
북극
신료
거침
김제
롤러
해봐요
허어
거쳐야
화물차
공략
대는
방과
벌어
침체
카라
허브
##순환
##쁩니다
무너져
광복절
궁복
박미
박차
인출
휘말
조경태
강했
도라지
래는
메타
물으
이효
중전
해병대
##다발
##어어
없앨
외제
인양
쟁이
주워
업무상
무더위
일회용
전월세
김만
마일리
부유
어둡
유류
응징
입안
특종
##노총
##er
##밀리
경악
급기야
본토
불복
상반
위탁
이장
자이
참패
##서야
그런다고
광범위
극대
비참
셔츠
열광
표절
프란
피드
피클
햇살
##휴일
돼야지
양지열
넥센
유보
이스트
지름
축복
피난
한라
가져간
06
감축
그레
농부
두드리
빨랑
양정
장병
##계탕
##느님
##특위
기름기
벗어날
후쿠시마
게이
빙수
쓴다고
애완
울려
유모
##방울
으신가
무너진
공산당
이왕이면
고이
깜깜
데모
되풀이
불참
선도
선가
슈팅
이릏
장원
폐업
##절기
일어난다
과반수
경각
경협
##버그
들어와요
신조어
고품격
송혜교
두산
뜯어
볼륨
##간장
##폭탄
개헌안
스티븐
망언
미르
재민
정할
창구
티에스
##폭풍
트레이너
국공립
고른
공황
맙니다
문체
질타
피겨
##중기
챙겨야
관철
다더라
디즈
떠돌
상금
연도
염치
이창
한들
##두기
서장훈
말렸
##버리
스케일
쇼트트랙
대소
로펌
복판
영아
충동
방면
술자리
임산부
첨가
국무부
올리브유
두꺼운
고단
귀가
당해서
라영
무례
아울
이래도
했다
드릴까
단일팀
수목드라마
백종원
몸통
미미
박항
합참
##블릿
##중훈
받아들인
불거졌
오사카
김규리
나쁠
수축
자책
접견
태블릿
파울
피케이
화보
박항서
감격
는단
때린
상점
이즈
처가
흐트
##대교
하나님
300
공휴일
멈춘
부착
상견
역주
예견
넘어섰
뒤통수
베토
초밥
##베리
여행사
권력자
갈려
강박
노라
런닝
서대문
식스
어매
직관
##민기
어쨌건
비자금
교내
무어
뺑소니
엄정
조달
퍼스트
풍발
가뭄
거액
격렬
대진
려니
마님
스윙
양궁
엔에스
콜롬
##모스
##게티
##김없이
알아내
다녀야
무서워요
물려받
극히
나기
멍청
시네
신작
연비
풍미
하재
훔쳤
건축가
하이라이트
##부인과
조계사
누진제
마일리지
씨티
유람
일조
정환
태세
행장
흐뭇
재판장
된다면은
김동연
금세
덮밥
무도
보트
분란
##이나
전남편
담담
예금
잇몸
줬었
했어도
##니즘
에스티
입주자
스폰서
기절
리드
새싹
식도
통깨
방지법
남경필
베토벤
날렸
말레이
모란
묘지
사채
십시
장제원
중구
체인
한명
가로막
장윤선
가셔
끓여서
발각
보임
불타
조력
들으시는
내쫓
딱지
맞벌이
밀항
뻔하
사수
재테크
호선
전문의
동아일보
카운트
구박
급변
밤중
불화
여럿
강태
그립
멜라
묘하
삼계탕
코팅
트롯
##교동
드러날
급격히
기종
깍두기
멸종
붙일
주진우
출혈
##자실
기상청
광경
메밀
에디
예스
인저
잠복
태종
김정숙
들으시고
영등포
꽁꽁
높일
동경
상시
스쳐
##진아
만드신
벌금형
매수
명쾌
좌측
퇴출
##테랑
운전기사
목적지
어째서
해수욕
김홍
꼬치
므로
미남
스탭
##보카
최충헌
고혈압
동문
부천
응용
처우
혈전
프로모
결의안
걸림
교포
되살
병장
연고
주어지
중견
아까운
잡수
촉발
클로
##커녕
조양호
겨자
도무지
산다고
상체
재무
##블리
아무거
정개특위
안진걸
개통
따를
마칠
밀착
성급
시크
유선
자의
제지
택하
계약금
모니터링
속담
써니
윤두
친숙
홍익
##데미
이용자
살아오
지상렬
끝장
반하
베르
앞세
칩니다
키즈
희귀
동아시아
고파
목도
몸싸움
비웃
상응
열세
조물
선수단
아카데미
탕수육
역주행
공관
느그
소생
윤지
전동
학번
어쩌다가
김종민
과외
진해
카이
항생
환관
레이디
프로모션
손길
시부모
적힌
캘리포
환하
##코드
다니엘
느껴질
뛰어가
간절히
가처분
간지
계통
미운
비무장
여운
으응
지칭
##사리
##수리
##깨비
두려워하
어지럽
캘리포니아
공업
관전
넓혀
대성
베테랑
산부인과
양면
쫓아내
후라이
##돼지
우주선
아이러니
너라
베풀
비티
세비
안개
오보
인위
정자
즈음
출세
##모니
##아삭
아이오
청소기
프리미
브라운
아삭아삭
구우
선원
연남
원룸
윤창
자재
집합
하마
##임스
군복
끄집
드럼
만주
암만
황사
후문
##이러
경차
넘나
는진
더럽
무모
수년
자판
자립
캐스터
쿠키
한석
회자
##심장
쓰러졌
비수
야식
졌으면
크로
허무
##둘기
이명희
안타까워
우상호
만수
서지
선지
체하
태식
##벌레
참가자
드나들
##키스탄
회고록
상견례
군주
답장
법학
송중기
쌍방
오갔
왔다
정옥
진성
창가
태연
기념식
밀어붙이
덧붙이
차명진
서강대
꾸리
노비
대타
문단
요지
은주
휘두르
##금속
더라는
관계없이
이러이러
그럴려면
내려갈
정두언
경각심
개구리
끼얹
다저스
법령
벨벳
운전석
들으시면
성의
어젠
언닌
줄여야
중공
내려졌
바이킹
현관문
피드백
구인
리뷰
물엿
온전
왕국
유랑
다른데
선입견
루이
밀린
서재
우월
잡힐
후폭풍
##오프
느냐면
멸망
북방
습니
장년
제임스
표본
레이저
양현석
기찬
낭독
넘길
농약
두뇌
무혐
반감
숨졌
윌리
문제지
골드
덴마크
발동
부의
선뜻
약정
유가
진아
첨예
평안
##네즈
이정미
스티커
애청자
날까
당정
부녀
비둘기
요란
저감
쯧쯧
팝송
내려야
회의실
교통부
안락사
보따
서준
연재
잔잔
질주
한다며
관리자
구기
끊기
땐데
세팅
스케이
아빤
일면
##성룡
##아이피
브이아이피
감청
무당
샴푸
악순환
헛소리
계승
교직
위약
이덕
저만
즉흥
##교사
거둬
구설
꺼꾸
높였
마찰
무선
뷰티
비방
수혜
써먹
은닉
척결
청량
형국
##모로
나와도
사과문
김경희
다스리
장시간
별미
알릴
열네
자서
출력
##티스
신문사
콜라보
넉넉히
보따리
사병
입히
트윗
황정
##고당
##상수
올리고당
마요네즈
디즈니
귀중
던질
배분
싸늘
일사
했었어요
보인다는
로드맵
가전
감경
기동
남양
앉혀
초심
통통
지켜볼
드러낸
누군데
윤상현
김호
무명
상도
아부
연골
종아리
혹여
초미세
경화
구비
국보
다채
안면
엠씨
전자레인지
보행자
말레이시아
끝낼
낙선
반항
생신
세세
수돗
영영
포격
##세대
여러모로
구슬
스태
쌀국수
여중
포트
한답니다
괴로운
나잇
땡겨
속해
실상
쓴다는
쳐야
쓰러진
스키장
스파게티
낙하산
파출소
항생제
구리
농축
명운
박준
배관
안산
약조
여력
오키
최적
이루어져
괴롭힘
십시요
난다는
술잔
여석
최장
그저께
어버이날
담요
불빛
승소
약품
요요
치솟
확충
##동자
##고래
달려들
마카롱
긴밀
마취
매듭
짝사랑
편할
회유
유리창
이영자
밀어내
싫어하
걸림돌
강세
동혁
미호
방조
변기
품위
합병증
그물
악재
집요
치를
타운
파토
보인다고
전현무
발자국
08
걸레
구서
대낮
마중
정녕
##드레
##냉면
주의보
박지훈
서양호
정진석
안중근
기질
등교
수송
예리
잇따
전철
커트
후춧가루
##민주
유산소
국간
라떼
문과
비호
의중
증시
김현철
스케이팅
계량
놀러
들려요
미제
빨갛
소다
을려면
주둔
환절기
한국사
들려오
징역형
이정희
터미널
오냐
은비
을게
주치
##마다
떨어집니다
심리전
출근길
긴요
대지
모차
약사
태양계
경질
나흘
순찰
언더
진리
최승
폐렴
##뜨린
좋아했
해수욕장
구로
기승
만한
명란
조급
지질
진흥
카트
특감
할께
##야차
진단서
수신
신대
폭침
화기
건너가
이영학
김명수
방정식
공복
뉴턴
늦추
수화
안마
어벤
윗선
현태
##다닥
##경수
정중부
크루즈
대관
데치
심플
우세
입찰
잠잠
지소
지주
치렀
##시기
장하성
스태프
km
매점
명명
미라
##운다
각인
쇼크
##도록
##맹이
##슬기
새우젓
떠오른
거창
구애
볼턴
죄질
그리움
좋아할
중력파
물리학자
개막식
거미
겹쳐
몰아가
몽땅
물자
바구니
생성
오디오
진박
체내
통계청
전원책
벗어난
망설이
교제
미식
악의
야기
추운데
플로
##우진
아마추
그려졌
홍영표
낙관
도라
등재
막혔
반품
번개
봉합
윤성
일거
중증
최민희
간신히
발찌
성북
수없이
암시
어뜨
용수
조이
짐승
##뜨렸
치료비
인민군
금강야차
수표
췌장
판다
##더기
초대석
다란
데친
색감
서태
이닝
진위
커져
##래곤
마셔야
강진
까칠
독려
물결
신맛
오승
참말로
결승전
강주
기점
두요
예진
##팩트
그러니
살인죄
김한국
파헤쳐
내린다
류성룡
송정
아몬드
오답
자회사
호의
태어날
이희호
홍문종
대루
덕담
번식
부쩍
분원
서두
순종
우여
원론
이북
전전
파파
무너질
가산점
깨알
도민
이뤘
입혀
잠든
지닌
##웁니다
베이컨
으리라고
26
남친
밀양
사부
온전히
원비
적법
해다
독재자
검열
오스트리아
09
네거
바랬
박연
벗기
보류
씨제이
우체
은수
전할
한껏
형상
정치판
지나갈
계약직
이종훈
견룡
쏙쏙
유적
작심
증진
추방
히로
이라두
나영자
갑상
과인
되도록
미진
보답
산모
시리아
아보카
얻어먹
옆구리
인치
합하
험한
##보이
##신수
유기농
수돗물
공대
구르
모터
모닝
미자
온수
올지
##하키
##테이너
출연진
디젤
물김치
미행
빨대
삼자
세간
양치
점주
펜싱
느껴집니다
당국자
감형
곰곰
난데
농산물
모조리
비평
생사
소풍
어여
이맘때
저럴
##도현
지원자
감면
경치
그서
기리
마로
에세이
유희
줄였
찍혔
##대표제
가리키
정돈데
이경애
관두
기수
연체
옮길
욕실
원점
투여
나올까요
영양분
감춰
그쳤
놔둬
동교동
몰락
민경
민호
유령
중환
혈통
연기력
이혜정
거점
남짓
래두
미드
산정
예에
풍기
향신
그만뒀
실종자
가닥
거들
관저
누명
막장
어슷
필드
한인
##지르
##크스
수용소
난처
동감
모스크
연내
울린다
첼로
칼륨
##잣집
밝혀질
현대사
두려운
바쁜데
오신환
거장
급박
다발
도토리
볼거리
빨갱이
선처
운반
육지
조두
행세
비례대표제
외로운
탐험
##무진
떨어져요
김수현
걸맞
드레
멧돼지
반문
번갈
벽돌
영채
전조
참배
흠집
정신없이
미리미리
까닭
냉각
물증
사일구
신의
어처
트러
하자
주무셨
후계자
아마추어
간과
그기
꼭꼭
사선
위배
이봉
출처
##아나
##벨트
물어야
의약품
고프
모함
모독
버블
양손
원형
육박
정선
탈세
테이크
##바이벌
거쳤
바빴
얽혀
준하
질책
##트라
##바탕
의문점
하얀색
제정신
가톨릭
그른
끈적
밑반찬
스모
열대
올까
일국
입문
종신
지오
##정부
##런트
##타기
로선
발산
심기
영재
중세
타파
##준다
##곡절
강력히
스카프
우라늄
우여곡절
네거티브
아보카도
공갈
다크
라던
매개
유교
피시
해왔
##다듬
들으셨어요
의정부
한상균
기특
늦춰
돈가스
분홍
업주
영희
오타
을려
자민
접목
조인
##애플
궁금해하
오른손
표창장
저만치
라지
받아
제인
##언니
아이언
기술자
김상곤
파인애플
강기
그릏
꼬이
달빛
동승
무마
무주
브루
수평
실에
을라고
조서
행렬
어처구니
각기
관해
도보
리메
명태
안시
얘깁니까
어다
종시
쿠바
토막
피크
##진보
##픕니다
어머닌
키워야
부러지
날카롭
전교조
강타
복제
뿐이
악역
어설
울림
으이
친밀
단기간
애호박
놓친
다더니
소견
시너지
안위
울릉
이브
어때서
김관영
이회창
각질
뒤돌
들키
소액
식습
큼직
정상근
사라질
이인영
##진보당
식습관
근래
꽃다발
섞이
아셔야
##네스
##플러
출발점
끌어들이
디엠지
유람선
베네
속초
수산
시뮬
신앙
언행
최정
##BC
##널드
##액션
검찰청
아픈데
내정자
로버트
배워서
승현
시연
어떠십니까
고깃
긴박
두어
맛없
버려서
분립
불공
산악
유래
자가
한시
어찌나
통합진보당
수상자
면허증
선후배
개학
걸으면
골뱅이
매기
매크로
삼가
스노
여직
열사
육류
관리법
오이다
바지락
위약금
개시
살려서
소동
수세
악몽
완치
조속
콘크
파마
현석
##어붙
따라야
더니만
스러워서
모셔서
돌파구
기어이
미혼모
콘크리트
국빈
그토록
대명
망할
소폭
송연
순심
암기
칠레
펼칠
##지노
들으실
지식인
강지
경청
광산
국한
궁전
깨진
낱낱
부원장
서늘
아신
양진호
위급
으아
코디
##감치
##절이
##찌감치
어떻든
폐기물
사우나
이병헌
송영길
심재철
모차르트
07
개업
로열
수하
심해서
오븐
재임
징후
움직인
김범
백병
상표
실려고
영복
용이
자석
책자
흡입
나올까
이태원
방청객
가열
나래
누설
라우
번영
상했
서바이벌
석상
수락
어김없이
오미
옮긴
외주
원더
원곡
찢어지
체지방
해봐야
##프레
##는지
브로커
로우
아슬
헤어질
##조심
권리금
싱크홀
조두순
감량
동독
리어
박혀
발짝
부려
비시
빌린
성산
약관
옥탑
와일드
주지
황병
마음속
아마존
카페인
다운로드
스며들
유방암
게장
남남
알림
여도
오오
전산
휴양
##성어
##오스
##호흡
오리지널
겉절이
김도
끼쳐
리콜
문고리
소아
잉글
힘차
아래쪽
2015
까다롭
막혀서
복습
본연
세라
수직
쉬울
절충
카르
허점
##힙니다
움직여야
내세웠
괴로워
아미노
납작
밀수
보양
유추
인순
탕약
파행
폐경
##언스
만족도
김형준
군관
댄다
독한
될려면
여관
연중
옷차림
제하
차돌
탄원
편곡
함경
호적
바로잡
전염병
기정
마담
반입
삼당
쓰인
집들이
천막
체코
프티
회색
##행위
##셉트
부끄러워
조그마
미모사
장례식장
최영일
가형
격투
그자
까맣
미생
손맛
수련
신대요
치약
칼날
할래요
호출
##하이
아르헨
문학상
타고난
동호회
교시
도깨비
사귄
수중
수산물
시누이
유무
점잖
##무소
아이스하키
굵직
내막
단거리
떡국
심석희
자궁
저주
지긋
채식
습니다요
연합회
요양원
지리산
물음표
양정철
자판기
아르헨티나
과천
극도
등극
봄나물
신홍
직위
폄하
호평
##공사
만드셨
갈라지
기말
매물
총지
한발
힘찬
예고편
제스처
둘레
봄날
차렸
찻잔
세계인
좋아해서
머물러
천문학자
갑상선
결핵
곱창
구직
불씨
불문
상미
시완
오공
자비
잖니
젊음
주현
지날
직구
##드로
코스모스
금란
내공
담아
뾰족
수인
이방
정미
퇴행
펑펑
헨리
의미심장
찾아다니
오래간
으셨으면
응원단
똑똑히
노랜데
시뮬레이션
간통
경직
상쾌
수납
용지
워라
##서리
한다면서
가져다주
돕니다
리액션
소추
수뇌
신자
친형
풍계
황희
##여대
지켜봐
공사장
어울려요
이화여대
아미노산
나을
대교
물티
안토
야경
유관
쫓기
튜브
한해서
기울여
명언
방패
복자
상어
습기
영동
지폐
##에이치
수제비
공헌
낙엽
멘탈
박인
볼펜
부침
산지
세차
전차
펑크
경쟁자
구석구석
헤드라인
그새
민법
빙상
장차
전속
정적
초음
쓰레기통
어두워
유재석
금감원
휘발유
단국
무방
식혀
올드
쟁반
점포
아이폰
당당히
조합원
중고차
불러일으키
내사
라야
원대
풍금
환갑
하루빨리
일부분
반짝반
물티슈
감식
고흐
나옵니까
더러운
리허
상탠
잠정
##만감
찾아올
반짝반짝
55
구명
꺼려
동치미
들썩
맞은
물꼬
북경
오랑
필라테스
허고
##폭력
어린애
보건복
낱낱이
맞은편
건대
도출
팬클럽
혜신
황급
##듀서
프로듀서
떠올라
밀어주
스페이스
최지은
외할머니
가뜩
김신
누릴
말미
생략
엄벌
연달
된다니까
소금물
원주민
구급차
제곱미터
리허설
무쳐
수연
순금
일석
잠자리
중상
하소연
##슬링
문제기
고지혈증
리메이크
가세
걸린다
권해
대나무
맞선
부잣집
불순
양조
살펴볼게요
파헤치
이학년
테레비
자서전
풍계리
다네요
문턱
앞날
조형
친화
투병
황하나
##우지
전면전
공소장
현수막
들린다
뿌렸
사개
승상
자은
저승
지울
틈새
홍합
##장난
##꼬박
##미안
연구자
음악가
아닙니다만
꼬박꼬박
당청
대공
도자기
밥솥
배웅
볼링
사오
찬양
##렁이
다가올
했었었
그해
대니
바비
벌컥
상탭
실린
얌전
전승
조류
캐치
환전
##고생
머무르
상탭니다
꺼낸
박재
월남
##갓집
모용보
최태원
모란봉
트러블
90
규탄
꼬막
사적
재편
전광
추산
##나와
실험장
강자
방중
산후
서술
접할
정제
처신
클리
항해
##장구
##셔널
시켜요
신다고요
발명가
최태민
보건복지부
다칠
도면
무소
불면
에휴
우익
임팩트
할라면
##중독
으신데
아쉬워
비틀즈
조종사
궁궐
끓어
사색
용종
키위
트렁
팀원
푸르
신동빈
리조트
트렁크
권역
라가
러스
서신
소양
요만큼
제때
콘셉트
탑재
##꺼이
##람회
신용카드
법인세
덧붙였
지극히
나치
도어
박보
수만
영환
좌지
참혹
카피
힐러리
##기에
돌아옵니다
스타킹
지휘관
매달리
각별히
결사
박혜
벼슬
뿌린
성원
이율
주파
직종
쳐도
총알
합작
가입자
눌러서
정몽준
가늘
관통
기석
나뭇
당파
들였
민노총
발바닥
쓰일
여객
유수
착취
풍요
화백
번호판
촬영장
갈려면
굴욕
내전
더듬
묵직
반증
보빈
얼리
여소
원희
쳐들
풍자
##의식
##현민
##플레이
넘어왔
소화기
감찰관
때릴
명장
온다면
유채
폭우
혼났
##대사
##동주
##문화
들어선
장난치
집권당
즐거워
제수씨
가뜩이나
남극
내민
늘려야
만장
반주
부진
수작
증오
##가짐
여행객
군사력
기다릴게요
기뻐하
어뜨케
강물
국진
도약
벌려
역동
연개
욕먹
은평
점막
제네
진격
호상
##신문
에이스
202
나간다고
강남구
양만춘
하재근
안시성
르네
비관
석사
세미나
습도
식비
예감
자초
피터
할리우드
프랑스어
금지법
문무일
고건
까불
도화
박기
질소
징벌
특파
##아름
##CT
해야겠다
##라이언
구하라
구독자
간주
관문
꼭대기
뚝뚝
리우
오종
을라
조청
직설
김태호
소홀히
건방
겐가
곡물
내성
망한
비지
세모
찌꺼
철강
한전
해답
##종일
##쫄깃
이한구
무공
봅니까
수진
수레
신종
심폐
씨방
앤드
쳐요
카지노
코칭
폭넓
##소금
##그릇
해서라도
드린다
방사선
깊숙이
가면
각성
깨워
대란
명회
볼트
생으로
위계
정립
지면
김지현
아바마마
튀어나오
쫄깃쫄깃
흘러나오
찌꺼기
가설
가릴
놨다가
림프
어학
재력
쫀득
헌티
##아슬
##타운
아슬아슬
겠어요
군기
권총
노중훈
댕기
방심
선율
움켜
재연
청담
촘촘
회상
##병제
##바구니
그러실
이야깁니다
나타납니다
위기감
보건소
장성민
거스
나야
낭청
늘릴
불평
압류
졸리
티케이
파우
혼선
##잔치
타임즈
송영무
콜롬비아
관대
까페
넓히
배낭
북유럽
재량
주춤
홀가
홍성
후예
##봅시다
##당제
##틀러
연장선
유행어
당첨자
두리번
포지션
거뒀
게재
낱말
도널드
드는데
만납니다
무르
물의
바란
봄철
사제
스티브
오촌
의향
지민
페르
품절
희희
##버님
##타르
인수위
할려면은
사교육비
서태지
홀가분
대서
무이
수구
합산
는다든지
판매량
속상한
35
가두
가래
과대
뚝배기
뛰쳐나
말희
멈출
불허
산행
서핑
재앙
정희
최성
충무
틀려
팔짱
가져와서
소수자
마땅히
슬로건
나빴
담판
불상
쇼파
식중독
심도
알선
여쭈
일파
포만감
황가
##봐라
엔지니어
금괴
민수
생크림
소량
주십시오
통지
##삼촌
##티오
이뤄졌
강대국
지디피
유모차
윌리엄
중환자실
계류
고를
근황
단말
매스
무제
복직
엎드려
자상
조립
조응
터트
펭귄
학벌
당규
되새
따돌
매월
보직
신단
찬우
포진
표방
##스테
지휘자
결선
꼰대
니라
부남
빛깔
빼먹
염소
정파
특과
학사
따라갈
올라올
경영학
최진녕
정수기
전단지
로구나
메가
무안
발랄
원해요
이다
평점
##내기
##임자
알아본
축구장
스킨십
특파원
강구
구출
상설
시차
시멘트
일찌감치
제동
지령
퇴장
향긋
허전
호날
##포화
##말라
입장권
사이코
느껴져요
어지간
김제동
호날두
김완
멈췄
방황
손꼽
앞부분
유물
자긴
지라
충원
편입
풀어내
해주
헤아
희수
활동가
기막힌
29
도왔
된대
뒷면
멀티
박진
왕복
존속
참신
챙긴
추우
홍석
회생
##무니
##바라기
정신없
들이받
가창
공채
내심
더울
사다리
연필
우르르
읽히
절묘
지아
캐스트
패밀리
하키
만든다고
김영남
부드러
보라색
신생아
구여
구태
민변
박진영
배움
부팅
세밀
순정
아으
오니
우대
위아
으깨
처치
팬덤
프론
헹궈
##랩니다
다가온
주택가
거셨
아연
천태
##동원
##태현
##베리아
영화배우
사이클
마셔요
가미
감명
결별
경장
끓였
반고
벨기에
선적
설렘
신축
에코
오디
자처
중원
총력
쿼트
희석
##포진
신뢰도
명백히
두들겨
가결
결핍
깨졌
누이
속한
습격
시방
아후
에릭
외무성
충당
피트
대상포진
##주의자
파이프
재수사
전지현
해준다
경운
기꺼이
내륙
넘쳐
단합
마리아
모발
장편
직속
혁상
##오래
##달래
따라다니
치료제
청계천
강적
고명
교묘
국선
도미
라틴
몰르
바쁠
본의
수동
신약
알린
얼어붙
잠적
졌었
##져스
##성장
알려야
오래오래
부서지
초음파
강령
강석
경연
권은희
단도
만요
북적
일품
죄다
추워서
칼라
함성
나온다면
되돌아보
부의장
좌지우지
광희
급해서
벼랑
불이
설전
아픕니다
초유
허블
##영향
여쭤봐도
의료비
공학부
동반자
고하
시련
애착
역임
제삼
제트
편법
혈흔
교육비
계신가요
물어봐요
부탁드리
이리저리
의뢰인
황태자
프린터
마찬가집니다
한명숙
근심
내쉬
담겼
미얀
박명
부피
습득
아싸
치부
하사
호전
화랑
##네스코
황급히
굳건
든다고
송강
지욱
항일
허니
확립
##진진
전문점
신경전
갈아주
박주선
패럴림픽
가파
건넨
걸친
교역
셜록
속였
아지
전장
정이
조강
후면
##유산
이나마
시사회
신재민
윤두수
개장
건들
과열
반해서
분화
시카
억류
열람
왕궁
원상
접어
태진아
##티아
##네임
인권법
고령화
여주인
마그네
어벤져스
국지
노계
아모
원소
위드
타석
함대
훗날
쏟아졌
소나기
가한
다던가
대질
뜻깊
보배
불기
수긍
운항
임자
팔찌
##루션
##테이션
##센터
지구대
흥미진진
부른다
박주민
페미니즘
불공정
곁들여
들인
로울
명나라
불르
사세요
서거
아사
애도
엄연히
이도
차인
특공
판소리
호스
혹독
흔치
으로선
퍼센트포인트
평화상
나미
돼버린
부제
불쑥
지독
쪼그
트인
사회학
경제력
조현민
오래간만
강재욱
겨누
구려
릴레이
서식
수칙
유유
윤태
한성
##아라
##초리
살인범
과부
범주
유네스코
타령
포상
##노소
##리지
##센스
##왜란
그려져
시위대
하이튼
강경화
남녀노소
정우성
구미호
임진왜란
kg
낮잠
노니
살려야
온데
자객
초라
친자
파열
##배인
연습생
실업자
경의
몰두
써라
악취
오경수
저흰
컨테이너
태주
판세
편찮
폭스
누리꾼
강호동
총지배인
수뇌부
낙인
비스
순차
토하
##소서
##꺼풀
이승원
재정부
매달려
표창원
모스크바
담장
마녀
빙하
시판
실크
열량
인플
정인
##혜진
해지지
강서구
비료
사칭
양기
원시
차주
##치마
에스오
이어받
자연사
2017
고액
꼴찌
단행
동구
들통
사치
사심
역도
연아
전병
진솔
혜성
운전사
걸어야
더더군다나
걷어
등분
매형
밀렸
섣불리
페인트
흑백
##트럼
##조물
##송이
가르침
사기죄
느낀다
쫓아다니
감행
깨어
말끔
분분
불통
순순
안대
운운
이웅
정차
졸여
천상
태아
페트
##악산
이러다
독일어
소방서
전세금
부추기
스펙트럼
게으
국상
낸시
단결
독하
브렉
에듀
자그
제장
판도
학비
흘린
##레나
작년도
펼쳐질
고위직
언젠간
아드님
조수석
04
가드
과속
닉네임
미움
반값
배석
뽐내
위인
육상
충정
코앞
해바라기
##란트
가요제
후라이팬
조응천
뭉클
성심
어림
은결
종사자
진다면
친군
하향
하단
호킹
환송
황자
세계관
장영실
노르웨이
오키나와
우체국
미달
색채
신진
외과
원동
추신수
해리
혼합
그러므로
대표작
김영환
김용남
날아오
물려주
광해군
과한
는구만
달랑
동점
무술
분말
연임
제소
종대
질질
텀블
투신
퍼즐
흐리
##레오
마음먹
기다린
시험지
펼쳐집니다
부러운
과식
벤츠
봉준호
섭니다
심란
여편
외삼촌
자선
주정
##비슷
그만둬
붕어빵
한라산
경부
경훈
공청
몹시
십자
쌓였
적색
추대
취해야
치고
##시대
서울역
소방차
배고픈
이겨야
일기장
직선제
건배
그깟
매몰
면밀
박형
빌렸
석연
숙영
실점
쌈장
오청
주점
통학
##지도
들어줄
작업실
봉사자
스위치
잊어버렸
비닐봉
독립운동가
장단점
그랜드
냈었
놔라
독보
막론
불포화
소선
영사
외전
이규
줄인
특색
##소영
##막이
##메이
##낍니다
그러신
아주버님
피해야
선거제
넘어선
나눠져
들어간다고
입법부
가벼워
에에에
마이크로닷
갤럽
교향
뒷자리
산수
우기
장대
진공
코피
포위
##노릇
##팽이
드라고
어찌하
김종필
보상금
맞아떨
우러나
황병서
원희룡
거트
경성
극찬
끼니
도의
동방
벼락
세심
옵소서
진척
히틀러
##바라지
계획서
건설사
임종헌
##그라미
여편네
대도
면도
모친
비염
여가
외워
이봐
잠그
정용
제비
제천
차곡
키워서
프러
##더스
##좌석
마음가짐
들어와야
실리콘
귀비
꺼리
달궈
연초
의기
정균
행군
##그럽
버스터
기념관
수면제
대주주
밀폐
주꾸미
추스
황장
##두근
라디오스타
가르켜
좋아합니다
평창동
울릉도
가채
구민
구워서
숨겼
아산
전골
토니
투사
틀어
필기
##코스터
##입니까
##훼손
##닙니다
오른다
반성문
명예훼손
대동강
롤러코스터
김옥
김석
맥스
면목
실버
접점
초안
##도로
##현주
##은경
들어섰
김혜수
스타트업
껴안
노랫
수반
슬라이
위염
인화
일등
전인
정관
해커
##포즈
##뿌리
시끄러워
느니라
개표
별루
사석
선봉
신정
싸워야
에드
여친
예결
위산
윤정
커리
코인
##소통
의사소통
모자란
모셔야
잠재력
원유철
다독
둥글
박나
반미
외고
유투
입담
잡아가
전입
조깅
##디아
올라간다
가르쳤
핸드볼
신동엽
조미료
프러포즈
늘어지
뒷좌석
밀집
법규
상급
서독
양가
올까요
전락
진흙
진달래
초인
친했
컷오프
쿠션
티스
한판
허공
##상스
지금껏
가족력
개소
낸다고
돌린
마틴
손잡이
아자
어휘
정아
젠더
짜릿
##시스코
##프란
##갔다
##래두
주방장
고사리
끌어올리
이세돌
왔다갔다
가도
낙찰
느낍니다
단련
동등
마니아
사마
아로
이터
저마다
줄께
펌프
하정
##일치
아이피
시간표
갔다오
드래도
시럽
인센
입각
채울
체인지
초연
투구
헤쳐
화석
##하하
##동석
인센티브
노랩니다
닷새
부쳐
숭실
실소
정대
종식
첫눈
카테
다시금
실무자
스페인어
초상화
부기원
가가
까마
만끽
방출
비문
산화
썼었
씌워
안다는
양희
장터
퀄리티
폐막
##망이
데려와
으라구
되돌려
담론
만년
악연
찬찬
체격
호가
##사스
내려올
달라집니다
고소장
상승세
밀어붙
노릇노릇
가분
내연
네일
밀려서
배틀
세율
프렌
하모니
##위성
##전드
이뤄진
기저귀
미정
숩니다
졸라
차용
참관
천체
프레스
##걸요
##튀기
따른다
오락가락
음란물
건립
귀농
김순
내치
누린
동사
리본
면책
박람회
불효
뻥튀기
사조
생년
어수
오산
울타리
티엠
##어머니
##하라
05
끼칠
마나
백철
사육
생중
애썼
없앤
정운
제육
졸이
출당
불어넣
청정기
경공
그딴
무얼
빈도
서빙
실기
얼큰
엉터리
유배
좀처럼
태그
특화
포화
##주부
##릴라
평양성
데이비
옥탑방
내다보
닭갈비
빠짐
완공
코메
프로그래
음악회
소화제
특례법
봐야겠습니다
이효리
귀환
대청
루이스
몰렸
빈대
빠를
뽑히
수족
실렸
얽힌
우크
이계
졸음
지어야
코멘트
통찰
피엠
기관지
물어봐도
수영복
끈끈
농어
놓칠
설희
숨길
정연
체납
##영수
얼마큼
그만둔
넘어졌
반가워
내세운
무지개
미얀마
남진
내뱉
망상
차태현
포구
한바탕
알려준
아파하
흔들릴
뛰어다니
마실래
유영하
간만
꽂혀
나날
내달
느슨
단언
뜨끈
방미
성관
아랑
어인
청나라
##무새
##튀김
는데도
내려간
가꾸
근간
기보
느린
들립니다
등락
레지
레코드
부득
서리
승강
악영향
절절
짜잔
치루
카네
콤플렉스
파급
화난
##랑카
##낙락
##관리
공모전
동그랗
불면증
희희낙락
금산
레전드
로움
매직
손석희
심이
정석
주심
줄거리
착공
착착
형벌
##시계
찾아갈
담겨져
비하인드
프라이팬
계엄령
유부남
진통제
검은색
거물
데스
모개
수여
수프
오선
이봐요
지간
##리오
##곡동
수학여행
프리미엄
수화기
송강호
순순히
박나래
괘씸
길목
녹두
사계
왔으니
이단
절정
팔뚝
핏물
해프
##세자
인공위성
프리랜
수식어
해프닝
가축
다중
레슨
분가
온난
왕성
전가
편파
##회전
박찬호
남양주
탄원서
위아래
간염
거병
곁들
대미
로이
방대
솔루션
옵니까
재경
주선
집니까
타올
통수
페놀
##길동
##패스
탐지기
가채점
가자
경리
경이
고음
기발
놓이
되짚
두피
발간
백일
베일
불릴
순조
올린다
저어
접전
정량
차도
토리
튕겨
피카
해적
##박자
다른데요
국민대
나와라
여행자
마신다
이화영
르네상스
교착
구일
단군
로즈
말썽
무성
상류
중달
참작
채령
##오리
도망갔
방사포
조계종
휴전선
개원
도배
돌고래
디바
모모
보온
뿌려서
선미
선영
스미
와아
차릴
침수
팬티
##동욱
##in
노동력
보낸다
이선희
김유신
01
거사
까집니다
리베
밤낮
썰렁
악보
역모
연명
요샌
욱일
철분
추웠
텍스트
흔쾌
##자루
해결사
편집장
패권주의
꽈리
둥지
변별
소첩
식기
씌우
안색
영표
이양
인신
전구
짠맛
채운
하숙
##보라
##문제
돌아본다
내려다
비밀리
아이언맨
가성
고부
굴뚝
김국
미비
빅토
익성
장만
참말
폭락
기자단
최재성
자이언
프리랜서
대의원
동그라미
마차
말년
메이드
멱살
모티브
봤잖아요
분하
절단
조재현
치른
카바
펄펄
항아리
##들리
##컬레이터
에스컬레이터
어려워하
동태
말랑
용의
자다
장혁
전업
전념
질렀
트랜
포옹
혼동
##그머니
한다구요
스토킹
무너뜨리
고모부
미지근
뜬금없이
윤지오
고갈
난무
느려
답사
더래요
둬서
밸런스
분계선
블라인
비운
상여
실마리
주된
홍패
화답
걸린다고
그럽니까
조원정
가창력
02
돌진
듀오
레슬링
로보
박선
부렸
시베리아
역류
우즈
위중
일용
치맥
피라미
한아름
##톡스
기준치
이어폰
펼쳐진
머물렀
사직서
포르투
슬리퍼
주파수
SU
나열
단발
러지
만연
박시
박범
불사
샅샅
속히
입소문
정종
집집
틈틈
##마차
##애애
행사장
이재만
느껴요
졸업식
수행원
스코어
화기애애
샅샅이
양대
엄밀
엽기
위층
차로
천군
추돌
코리안
터뜨리
특목
##경궁
##디다
##슬리
사용법
화장대
어땠을까
되돌아
자아냈
전경련
마그네슘
tv
결속
낙동
내관
담궈
라임
뻣뻣
서현
잠옷
청각
폐주
포부
##드름
##의금
취업자
신동진
블루베리
시공사
다산
문양
민병
박창
서찰
오대
우왕
줄게요
허준
호프
##말랭이
정치학
시킨다는
저질러
기만
변이
붑니다
싹싹
암행
연식
자루
초중
후궁
##학자
건너편
수백만
조물조물
##하이머
시카고
겠어
꽃게
달릴
박대
비키
슈가
애절
일삼
필연
##뜨려
##뜨릴
수도권
갖춰야
동성애
격투기
31
45
낼려고
사슴
소울
숨통
으란
자켓
짜여
짜르
##업소
봐야죠
시찰
안양
오줌
자른
장본
정략
증식
질리
출현
호강
##시간
##우먼
그려지
맞물려
블라인드
간간
걸루
독해
목성
무말랭이
본론
살포
셀러
신병
아임
안도
자두
점장
준수
즐겼
체형
친모
타구
텍사스
피력
하림
헤딩
회부
##성동
##르륵
##은혜
##평가
연설문
얼음물
연수원
당명
뚫리
멋대로
무전
변질
삭감
의붓
초소
##보기
##내려
##런치
못한다면
단말기
개천
거제
교민
담주
말릴
모성
복근
빈혈
원빈
원금
은재
인심
찌질
터무니
2016
서해안
분실물
거르
고흥
늘렸
보습
세관
셔두
수컷
식후
오아
유화
절인
점거
참견
헬멧
##부림
##퍼니
신문지
고마움
이정렬
공작원
더웠
두드려
실랑이
유념
잡아내
장세
처참
천주
캐리
전쟁터
페이퍼
쓸데없이
스탠스
최상위
끓어오르
결실
김인
링컨
물타기
민지
빈자리
샌프란
스치
아세
알츠
은영
참조
창립
컴퍼니
키친
허세
드라구
시험장
샌프란시스코
알츠하이머
개똥
끝없이
눈부
더만
도봉
라켓
무수
발판
볼께
앞바다
올인
윤신
중장
증이
지겨
처절
탁현민
##엄마
시킬려고
최선희
숨겨져
이부진
제삼자
가찬
두통
스몰
쓴맛
찰떡
추도
홍길동
휘두
##일비
##등요
##팬지
PD
군함
동이
됐으니
등지
변강
사온
속여
신격
으십시오
잡곡
잡음
좌평
추울
침팬지
포스코
##리나
빠져요
가르칠
얘긴지
다닌다
강산
관사
국력
규리
담아내
발등
백서
선체
쉼터
아수
아젠
열연
윤희
자괴
재우
중식
최다
코어
평온
해봅시다
화원
##줄기
아무개
추천서
문희준
아젠다
갤러리
도리어
만이
목동
백승
벌어져
상부
송부
식별
외박
종부
통했
항변
##쪼록
지켜본
제작비
불러도
진보당
개그우먼
플레이어
벗어났
만장일치
관제
금기
급해
기체
셀레
유례
출정
투게
플레인
한의사
##개장
빠져들
을지로
정해졌
송정애
투게더
빈소
아날
정글
크레
피지
화났
##은정
조인성
청담동
가디
고층
굴리
깨소금
다자
버림
성화
영부인
자각
적나라
지훈
##다녔
##더미
##물산
삼성물산
##리스타
데려왔
요걸로
민영화
결산
꾸민
발끝
발칵
봐줄
빈틈
속셈
송년
스탈
앉히
염원
워드
자숙
저금
전학
전관
조마
찜찜
청렴
템포
피망
##서비스
##대원
을까란
통신비
연평도
낙동강
고창
꺼진
는대요
단면
대위
살렸
선우
셀카
수주
연산
전활
제휴
중한
짓밟
차린
트래
##도그
##하늘
현대차
한지섭
바닷물
전년도
목도리
감회
건넸
경쾌
내몰
들르
라거나
런지
모방
빈번
심할
약초
정맥
##라이어
##임새
이사회
쇼핑백
경계선
배신자
생존자
각계
강철
담뱃
대용
박빙
삼키
셨으니
아구
유상
조르
친족
태영
후우
##월일
##on
##교차
방위비
고재
구해야
남길
눈가
무신
반일
백색
북어
서라
여느
예식
자해
장실
중방
천일
헤어져
현혹
흑자
##혜련
구조물
다뤄야
##그라들
2000
계피
공로
괴리
무열
뭉쳐서
시가
쪄서
쪼끄
책무
탤런트
노렸
뒷바라지
뜬다
레오
마우스
마동석
사절
암세포
요쪽
웃겼
지퍼
탁탁
##까봐
##신성
잖아도
휴가철
시끄러운
SUV
고현정
공전
노모
눈동자
단연
변제
봐왔
선권
소시지
요격
자화
터트리
한적
호도
##치열
##무시
##큐리
조명균
피로감
미스테
애국가
샤이니
막바지
미끼
빌릴
수임
양평
잠기
직계
통틀
통할
특전
파전
하우
환원
##차곡
##IP
관계없
어우러지
조건부
돋보기
굴러가
당직자
차곡차곡
고쳤
궁중
남다르
남조선
누우
수갑
파편
##먼트
##충제
##뀝니다
사이언스
에이비
회의장
공격수
힘드실
생년월일
구토
낸다는
외쳤
정오
총액
치뤄
폐위
휘청
##두루
##뚜기
드라마틱
중간고사
무시무시
압박감
갈비찜
떠들썩
가야
간소
갖췄
공립
뒷부분
모을
모평
물감
배트
삽입
설렁
순경
연못
재화
커튼
##바리
##과이
무서울
펼쳐졌
김태현
장마당
블라디
괴담
깨물
면죄
박동
의병
채웠
호모
후자
##어사
##어져서
요구르트
장애물
내놔야
돌이킬
약혼식
마찬가진
두근두근
간병인
장년층
장본인
곡선
공보
데프
뒤편
들을까
따끔
땡큐
물들
바뀝니다
발단
빈손
안구
양질
어스
옥류
완주
우루
은은
이듬
접니다
존댓
주중
줄까요
진서
천리
축사
피티
##베르
세계사
못한다는
장애인
모용희
고영태
존댓말
고약
소정
수퍼
승복
올께요
이데
찬바람
팔팔
풋고추
현빈
##차기
생각났
문화유산
합의서
그림책
사자성어
보스턴
휩싸였
아날로그
기량
기고
니스
볼래요
상기
성빈
이발
자릿
파면
혈중
##사정
##바퀴
##과점
찾아낸
일어납니다
밝혀져야
결혼식장
김용균
멈춰서
셀레늄
걸치
금천
김숙
놔도
도정
백도
블로
빠듯
삼일
제치
초동
퍼졌
황룡
후다닥
##토닌
##나절
선택지
과학관
더욱이
관람객
정세현
거듭나
스케치북
결백
내미
디비
며느님
부업
부류
불미
서성이
센트
승승
연연
재촉
지탱
캐리어
피했
허탈
##파이어
이재화
실험실
매출액
김재원
차돌박이
찬찬히
자괴감
곧장
꽂히
머뭇
머큐리
반듯
뱅킹
비화
쇠고기
싸워서
영조
인주
직함
통관
평평
플루
황혼
내려다보
물러났
유희열
갔으면
군막
꿰뚫
끈질
더하
데쳐서
돈독
두릅
레스
서프
선착
수억
유미
읍시다
일과
중량
청부
촉박
폐해
필사
아까워서
거래소
파일럿
시집가
내세워서
깜빡했
깨달음
깡통
남잔
말없이
모가
석실
씬데
야산
유나
유책
질수록
차등
축산
평판
나갔었
시킨다고
어마마마
골프채
성형외과
고깃집
데일리
독고
무자
미화
박철
볼수록
비오
쉬웠
아토
안드로
애타
우두
전작
차려야
찰스
채찍
컵라면
퍼레이드
정치력
대학가
달려와
물리치
세이건
노영민
페트병
텀블러
교란
김건
다곤
배짱
버그
시음
신촌
알라
테두리
패소
포수
해부
형광
환장
##우리
가정폭력
중앙당
돌려보내
엑스레이
취임식
겠다라는
어머머머
미스테리
개관
거려
고진
내요
들락
디오
벙커
변태
선점
시커
엔트로
장조림
증서
짤막
태운
팜플
피알
호화
확연히
##보감
넘어온
계신다
드린다고
걸어온다
수십만
싱크대
엔트로피
경미
달했
스틱
접했
트레이드
파키스탄
편해요
이미선
음음음음
팜플렛
감별
구심
논하
단층
뒤흔
럭비
열받
영도
육즙
윤동주
정제원
지겹
차비
탈취
핫도그
호구
##시원
##부패
이상형
최고위
운전대
부정부패
기념사
소유주
부상자
스프레이
고로
나섭니다
는커녕
답안
도난
동메달
벌일
보정
보너스
사포
살린
서툴
앞치마
줄래요
중랑
차재
차후
칵테일
콧물
패자
황우
##아치
기타리스트
스텔라
국영
렌터
여분
유린
유골
이연
일명
질식
코스타
타지
##현수
스트리
나아졌
보살펴
코메디
농어촌
렌터카
가둬
금상
대승
디디
바글
숙지
예시
올립니다
장도
재결
최윤
토양
한남
##어가
##재훈
어쩌구
동맹국
버려진
밀리미터
이야긴데
추징금
따끈따
감쪽
다빈
딸아이
목마
밥값
세척
숨긴
엠티
장내
좌표
테너
틀릴
편차
피피
##이조
##만파
##슬라
##렐라
신다구요
2018
매트리스
동승자
일파만파
각광
걸세
그케
녹말
수포
재기
지코
지압
필로
횃불
##려구요
##디슈
##영장
##출혈
##니까요
엄마야
##라이즈
수치심
신호등
끄덕이
정주영
잉글랜드
불기소
승승장구
모가디슈
내라
놀란다
닭발
둔기
드십
등판
로제
무분
물밑
반바지
봬요
서책
성년
송병
압승
잘랐
지평
운동화
신세계
박미선
일석이조
무분별
구강
다닙니다
듀엣
민낯
샀어요
소관
속일
숙취
신영
옥란
요트
요미
육자
의녀
줄넘기
투성이
획정
##끈적
자면요
받아들여서
이뤄질
후반전
이수정
누굴까요
선대위
내놔라
이력서
돌아다녀
하난데
박병호
끈적끈적
가했
거둔
경완
관아
권성동
끊겼
답니까
미연
베드
부들
설화
앞길
엿볼
요만
이고
인감
재빨리
찰나
포켓
##회의
##동맥
진행할
사유리
타임스
가로수
쫓겨났
동화책
거북이
부지런히
주치의
오미자
따끈따끈
구겨
뇌출혈
멍하니
방수
배심
브래
양수
용건
차세대
찬밥
혜림
화병
##스피
##공격
무리수
옮겨서
만화책
김동현
권위주의
두루두루
공청회
어수선
5000
경승
구걸
남방
동석
명종
불분
실존
야아
온실
잡혀서
피파
흔이
##쿠버
생산량
유승준
김태용
김동성
헷갈려
뜻밖에
주물러
자그마
맞붙
명하
브런치
빗물
산맥
외벽
을께요
초고
총영
펀치
회로
##라이스
##맞이
책임져
안정환
모아야
도망갈
데뷔작
이듬해
꿈꿨
다쳐
들끓
로라
배부
부랴
뽑혔
송편
일순
전권
주원
초급
치닫
킬러
택한
포근
##소스
##셔서
저기요
사용량
스러움
기다려요
헷갈릴
메모리
흐트러
개량
개요
대작
보헤
복역
응대
이럼
이토록
짜장
침실
풀린
환승
후방
흰자
##행시
##현희
##방식
근데도
사고방식
시설물
서둘러서
흔쾌히
구울
굴복
냉방
변환
살벌
선례
수육
쌍용
열렬
이드
전립
질려
천둥
총격
취사
틉니다
##겨울
##텐데
북한산
국제법
박지성
원한다면
가군
게을
뒤처
리비아
말랐
묵인
반디
식혜
실외
애리
연회
옥시
원찬
이니
조말
찝찝
하납니다
허망
희소
느껴진다
지하철역
공학자
신속히
고의로
xxxxx
은밀히
대명사
불분명
조말생
갈께요
관직
기색
도용
따랐
볼라고
액자
은메달
짜식
흡사
보여줘
할까봐
모를까
이윤택
개체
격하
곽상
달구
뒤바
목줄
문전
박민
발끈
부글
생모
서글
설지
수아
엄두
오름
요러
초당
택했
감독원
기부금
향신료
서라벌
거센
검수
달팽이
도지
도현
라운
마스
망해
물놀이
범법
불의
사탐
사골
오정
용상
우뚝
유망
육안
자시
탄다
파나
폭식
호스트
##문희
##아들이
갈라서
김혜지
수천만
홍석천
갈래요
교익
김덕
꽁치
미사
민속
박세
신탁
옥경
외래
장정
질감
편도
핵폭탄
행여
헤헤
휴업
돌려보
수리비
충실히
교화
군침
냉철
든다는
방산
신차
실사
조교
줄곧
해봐라
행인
##봅니다
감독관
증거인
양육권
수소문
부득이
특목고
아수라
다빈치
겁먹
관성
규범
단숨
목공
무에
미룰
밑바닥
삼진
상용
서진
아뢰
엿보
이휘
제고
짝퉁
추종
폭주
##로기
##수지
찾아냈
거래처
내보냈
으려나
어지러
어지럼
작사가
워크숍
무이자
단숨에
공매
끝낸
내과
누렸
당헌
독단
떠넘기
래면
반공
발톱
상납
알람
장충
처자
합친
향도
##커피
김원봉
급속도
분홍색
꽈리고추
암행어사
갈증
까짓
깨져
끼쳤
나군
눌르
메시
변국
북위
성지
세훈
왕래
우버
월등
입가
잡스
정승
직급
처했
초옥
춘향
##느질
소년법
고무줄
박종진
구기자
코스타리카
된답니다
배역
세끼
시구
시향
신명
씨알
오더
종영
주거지
지드
지네
포탈
세워진
주먹밥
##부르크
미생물
피라미드
건다
건망
걸쭉
관원
국외
생체
순발
씩씩
여상
진돗
척척
팔꿈치
편치
회춘
##부랴
노동조합
후반기
나아질
일으켜서
부랴부랴
순발력
진돗개
금성
김두
날린
남대문
내줬
독주
때마
말려서
백미
알차
야망
역적
임수
청첩
판교
##베스
이상민
연구실
부산대
항공편
설계두
이산화
코코넛
때마침
가부장
국채
군마
꾹꾹
노고
누비
모종
문란
미각
미러
미쓰
불황
사또
아낌
우도
유실
코레
틀니
플란트
할매
##지근
##원지
일본식
나간다는
전반전
신성일
무심코
이대호
안쓰럽
천주교
보헤미안
겨드
기로
까치
나른
능숙
도루
독수리
듀스
리버
메기
분신
치욕
토토
##자재
중앙선
핸드백
톡톡히
거침없이
박명수
데프콘
옥류관
삼일절
굳어지
몸부림
범상
별세
살상
새기
수성
싱겁
원심
유급
축가
했으며
힘겹
##대군
##쿠르
##설탕
##턴트
증거물
라인업
성남시
의석수
일간지
하정우
객석
겨루
끌리
늙은이
면밀히
버무리
변인
부흥
뷔페
비어
소절
아범
와해
적반
정거
지가
차제
축의금
특가
폴리스
호떡
##뜨물
에이드
대화방
소식통
150
나아갈
상세히
잇따르
상여금
건망증
경인
구실
따져서
러시
망각
성역
송도
쌀뜨물
워치
원봉
자아내
증액
집결
체불
친권
품종
흩어져
##기념
##닐라
생긴다고
안타까웠
선보일
오마이
서프라이즈
거봐
광부
금은
김철
늘려서
드립
무색
미디
방귀
비축
엄밀히
에버
오도
할애
프레디
김진표
이데올
거던
군량
권세
꺾이
나쁨
명진
아역
유닛
이변
장롱
정병
준공
최단
필립
홍종
화목
##방위
##체인
준비물
비슷비슷
들으니
강원랜드
달아나
손수건
노랫말
틈틈이
귀걸이
김준호
놨을
돌돌
뚫려
리아
마린
맞닿
모던
물씬
미동
밥그릇
보디
빨랐
살찌
소질
아담
웅장
윤영
이권
인대
인들
입점
재차
짝짝
##구름
##진다는
##만두
수학자
느껴서
김현희
예뻐서
몰아주
이문세
프린트
전립선
어지럼증
건성
급등
난관
대야
동동
묻어나
빗대
산삼
송가
애드
준용
혼사
##어스
##가방
##데스
##ST
다니깐
생긴다는
간호학
박영수
모일
민요
소치
인파
젠틀
지웠
책장
페어
##던트
##날리
기름진
둘러앉
경향신문
선보인
전용기
행진곡
블록체인
박탈감
성수기
안기부
이데올로기
광속
낙서
니트
마모
만회
명사
몸값
미스코
부어서
커녕
하지
호들
으셨다고
불안해하
바퀴벌레
창의력
중재자
그라운드
최민수
백지영
사명감
논설위원
미스코리아
걸작
덜컥
떨려
보듬
산골
손대
송준호
어뜩
엎드
커리어
트집
포석
합해서
##구이
##도전
##가니
이수현
무한도전
올바르
괴로움
여주인공
박범계
겠다는
놨기
뇌경
다당제
마일
번번
쌓여서
예년
진중
최전
선언문
강제성
마이너
어려웠을
갈비뼈
스리랑카
김양건
건드렸
중공업
스트리밍
뇌경색
감도
다각
물산
부임
살래
송장
여경
영인
풍속
흐른
##다구
##실히
##좌왕
##날드
예술인
얘긴가요
모셔다
갔다왔
마포구
엘피지
우왕좌왕
면죄부
기별
낙타
내진
돌변
뒤덮
모로
선서
안티
얄미
없다
점퍼
철없
출출
혈세
##포트
강남역
해줘요
경공모
건달
경관
면면
밀레
셔틀
약해서
유석
윤곽
이관
인숙
저조
현준
##규모
##효진
그래서인지
내려진
정신병
독립성
적절히
오지랖
간암
결례
때메
무치
바뻐
봉화
생김
성가
영공
접경
중천
터져서
혼돈
회비
##하장
##카이
##사실
##에이터
사실혼
##스토리
애국심
김연자
케이블카
적반하장
호들갑
결연
구타
김나
다짜
리퍼
머금
모세
어민
외형
육개장
이남
종말
포섭
혈류
호불
홥니다
흉악
##부들
##고짜
##따로
##퉁이
##시아닌
아우르
특정인
만난다
하이힐
출입구
쳐들어
스탈린
부들부들
다짜고짜
호불호
견고
고물
그닥
길가
놔뒀
래서
러블리
억대
원한다
음색
이구
잔류
창건
창법
콩쿠르
특약
홍역
##시중
조선인
들이닥
떨어진다고
총영사
고질
관습
궁녀
기립
석면
쉐프
오달
옥사
이에스
코다리
##마늘
그럼요
신다면서요
아토피
결석
돌격
될수록
따가
리틀
메카
박과
빨려
애지
연화
열등
은인
인접
자릴
정가
총경
팔려
##영화
이상득
도전자
피부과
노영희
오아시스
지드래곤
CCT
강신
거역
광물
광운
나폴
마진
만병
말다
반열
성비
실과
얹혀
예찬
응해
전셋
주례
테슬라
토해
한없이
##꾸라지
아니오
내용물
에이피
달려왔
거주지
바꾼다
간통죄
가락
각본
광대
교주
그믄
꺼야
녹이
다뇨
도매
떠도
레임
막아내
매칭
바느질
부응
분출
쉬운데
안봉
알찬
자락
줄리
지영
차츰
출중
타투
파병
팽이버섯
##드기
##부리
에스에스
안전망
후반부
대여섯
tvN
CCTV
레임덕
가나
개명
기서
내줄
노부
녹지
방주
식히
신난다
열린다
이근
크러
팔아먹
할당
허기
##클리
##음직
그리운
된다구
이재정
회계사
뒤집어쓰
자가용
감점
만류
맥도
목돈
미도
벌여
브라이언
서사
선군
섹션
숙의
신해
싸가지
앵무새
일교차
전민기
종양
주호
통전
틀려요
퍼붓
##라구
##브라
##저래
시켜라
지켜줄
무서워하
이치우
치러야
김윤옥
감미
던져서
뚫린
먹음직
미적
받침
배설
성품
손짓
시드
악어
애견
양동
영식
인계
크라
투숙
##라노
##연대
##중간
기본법
다녀와서
영양가
전자파
이겨낼
경황
규격
삼행시
소규모
심증
야대
외연
준서
중하
카타르
토스트
판명
혐한
혼례
##마니
##사전
##만장
##혈관
사회생활
중국집
인사이드
상대편
따로따로
가르키
들어간다는
##끄러미
윤창중
낭자
따져야
뜹니다
막사
맞혔
모유
부식
부릴
오비
원어
익스
접착
정준
질기
창희
현기
##도르
##부진
##독부
부담금
조직원
공정위
내세울
반짝거리
분담금
원동력
고함
금태
깜박
뇌혈관
닫히
라마
수모
승패
악당
역습
장판
진경
치는
큰데
튀긴
##아르
##사돈
##현우
##탄두
기술력
인원수
돌아다녔
멜라니아
걸스
끙끙
남궁
논객
놓쳐
당무
물끄러미
민폐
불발
소현
실록
주휴
하객
##지마
##예진
##못해
##퓰리즘
몰랐었
예방법
수십억
정재민
강동원
끄집어내
청첩장
가운
나면
내립니다
묵시
박힌
보글
수줍
어어어
오에스
임창
저서
최면
태백
통풍
퍼센
행주
##조마
##탱크
걸어간다
슬퍼하
미끄러지
조마조마
정거장
기냥
레일
망막
수액
실생활
어딥
엄하
카니
탈피
특단
포퓰리즘
화질
확답
##당초
##테인
##결승
##룽지
소문난
아시나
날아갈
지명자
성실히
벌어집니다
간만에
안봉근
어딥니까
VIP
김근
낙상
문하
보쌈
색다르
성규
앙상
여겼
옥중
작별
조끔
좌상
철판
친딸
타깃
홀대
##모직
##버릴
##디엘
##잡니다
##립니까
##거스
##느니
##악단
아이비
학교장
제일모직
라이언
스토커
종교인
수비수
충실하
까다로운
그제서야
열대야
구해서
극소
배부르
브레
사옵
세리
쑥스
옹주
의의
작아지
정남
취나물
터전
틀어지
허수
획관
##기구
##니언
##십자
드라도
기간제
갖춰져
안토시아닌
연개소문
경숙
관용
단초
담자
두둔
로웠
모토
목살
봉자
불경
악장
오션
울렸
원두
장바구니
주축
판넬
허희
##다운
##배상
아까워
퇴근길
군부대
계셔야
쫓아오
탄산수
조력자
검문
낭패
낮출
노스
따듯
막힐
삼척
수유
왜요
자몽
정명
지웅
컨대
페달
험난
희미
알아차
제작자
고소인
김종대
##프라노
그제야
김국진
어어어어
격화
꾀꼬리
노랗
닫혀
동떨
들려서
목선
박하
보아
부총장
사교
손만
스킬
애칭
어따
예뻤
육사
자장면
중매
지병
채동욱
총동원
추문
인가라는
강화도
손해배상
손만영
가곡
다네
무염
병동
사본
수역
아련
암컷
유은혜
조목
좌회전
쳐라
최경
트루
픽업
홍상수
##드롬
회담장
신경질
아메리
기말고사
경정
고산
난폭
노역
높여서
놓아
니께
단종
동무
벽지
보필
세여
외투
전우
피켓
##모토
##호부
##러미
##테르
따라잡
올라타
내려지
가까우
출연자
유의미
스텔스
데이비드
재결합
강추
견주
경감
경축
냐며
대패
렌지
려니까
부연
뽑아내
살충제
세안
시해
어가
연한
울분
주실
주전
케네
혜경궁
흥원
##아비
##달콤
그랬던
수사대
##어진다
다를까
헷갈렸
두꺼워
새콤달콤
감쪽같이
간대
극명
마왕
맥아
모리
박광
버텼
손등
알고리
언스
자사
정육
제리
지렛
천명
칭송
행패
허경환
##구역
출입문
조세호
빨개지
말다툼
지렛대
당치
드로
모병제
민혁
방콕
병아리
부종
손정
수양
십사
에러
연행
운수
유비
일터
프랭
가까웠
나눠야
몰랐다
실망감
종로구
서지현
누린내
설렁탕
가물
경전
경솔
고공
국화
데워
박슬기
분발
생색
엔드
엠마
외관
원할
재보
쭈욱
차익
총살
통조림
패드
하진
휴스턴
동의보감
유치장
주소지
분기점
초콜렛
카테고리
빠짐없이
이에스에이
고관
교리
담근
레터
맛볼
밥맛
수필
숱한
어부
오인
웜홀
자중
적임자
중기
쾌적
통닭
흐려
##비치
##트린
##ou
##네이터
이나영
보내왔
발표회
물러날
생겨난
김현수
장마철
만이천
케네디
곰탕
다요
돌궐
드시
들일
떠요
라든
매워
몰아내
무스
벽화
실청
왼발
유어
정례
진범
탄두
탐방
포대
험지
후후
흐느
##원식
##릅니까
대출금
물러난
마주친다
충성심
합창단
03
개당
나았
난장
따름
땅값
명복
버킷
예사
왕왕
요한
유브이
의례
인진
지쳤
토록
할리
히든
한다던가
학생회
경험담
소송법
들으면은
이정재
김수민
갑작스러운
포르투갈
가석
꿋꿋
납니까
내조
노을
레저
배변
벌칙
본전
상소
세네
숙여
술술
의관
전유
초파리
최명
퇴치
편찬
하인
해져야
헐리우드
흠뻑
##an
한다기
김용태
조상진
안성환
빼돌린
비닐봉지
궁리
내복
누룽지
돌풍
랩소
소프라노
신드롬
아따
알맹이
언짢
우방
이춘
지안
지그
채점
초계
캄보
함흥
화자
흩어지
##루룩
##주니어
사용료
만드실
성공회
고려인
그려진
들여다볼
찾아볼게
김주성
일주일
시크릿
교향곡
랩소디
가할
노련
대할
떠밀
떠안
만행
묘소
박서
선희
순데
스텐
일절
족보
추월
##주곡
좋아한다
골라야
슈퍼주니어
리얼리티
동남아시아
알고리즘
강풍
경시
김칫
떠납니다
바쳐
발리
발발
복고
산적
설현
아리아
에브리
연군
자손
정민
조승
추기
포탄
풋풋
피처
환한
희열
##re
##프스
##퍼드
학기제
인수인
황정민
귀추
도수
버럭
빠집니다
시흥
앙금
앤디
윤도현
이택
증강
평면
해발
##커트
보육원
드레싱
양조장
김갑
냐니까
동백
딴지
발랐
아선
은혁
초원
충신
회기
##만리
##무늬
병원장
도망간
시달렸
표지판
낸시랭
천일염
과민
굽히
놨었
닭다리
독극
먹였
멀미
뫼시
문책
벽면
솔솔
신봉
압록
양호
연다
완강
입성
조끼
주영
직격
참나물
행안
휴학
##지간
##당기
##바위
##천지
기업체
이승철
가천
국론
기라
날벼락
두만
때론
몰린
무릅
뭐뭐
벌어들
브레인
새롬
섬뜩
써놨
재일
짤리
하야
할미
##엘라
##영철
##바삭
##그레
해야겠
나타냈
생겨났
저지를
빠져나갔
대대장
바삭바삭
김우징
더하기
금태섭
가인
건드려
근현
내실
니즘
대칭
라더니
뭉친
변방
스탑
앞자리
왕세자
요하
의거
자니까
조재
지청
테스
##자락
##스탄
##림동
펼쳐져
감자튀김
왔었어요
이태성
사온데
갖가지
능가
독설
떠드
본성
식상
안일
에르
외쳐
중금속
찔리
채원
택지
토이
통쾌
현서
##장치
##유주
##그룹
문제집
데려온
이민자
우스갯
앞당겨
크리에이터
특공대
인수인계
광년
날로
뒤따
마산
모션
백혈
보입니까
상우
쑥갓
열혈
원샷
이등
입힌
잖어
철폐
체벌
콩가루
큰딸
핵탄두
화엄
환급
후지
##여름
##미늄
흔들림
유사시
우승자
나타난다
아바타
파고들
인내심
궁지
김백
꽃길
넷째
돌출
매겨
밖엔
병풍
쉬우
쓸려고
올레
일개
##산데
##효상
##게트
어울린다
할래면
털어놨
광명시
사이코패스
트랜스
가보
공허
떨림
라벨
민트
바게트
브릿
압구
접한
탐문
평행
하천
현찰
##트니
##uv
##수일
##당당
##착오
기업가
에이전
시행착오
학자금
반가웠
부끄러움
웨이브
현미경
이혜훈
사우디아라
현충원
사우디아라비아
고체
고강
곤두
과징
기인
끕니다
둔다
반나절
복통
부심
비쌀
선녀
수녀
왕창
원해서
음력
자빠
준모
질지
##효과
##차원
##람쥐
방해죄
이인자
몰아넣
공지영
서초동
넘나들
김건모
강해서
글루
깔깔
농지
도열
막무
무창
사공
소임
손괴
신흥
은신
장산
초빙
출자
피플
해리포
후견
희박
##시개
알려져서
아닐지
으셨고
제안서
공공연
스포트
남겨진
특이점
허허허
욱일기
막무가
해리포터
간수
간곡
금호
나진
노가
노령
대물
드롭
명색
발현
삐뚤
사납
산문
상심
슬그머니
얻어
올림
일동
입단
절이
지중
직감
할부
돌아갑니다
이용주
데려갔
몰려들
전도사
나잇살
오승환
강기정
은평구
고재열
우스갯소리
막무가내
반경
버젓
변속
사뭇
석호
성시경
시들
시조
시끌
오작
용사
유태
인적
자행
전폭
청결
초신성
코르
획일
히스토리
##선미
##부글
##올라
##직원
##불명
달려온
고추기름
김종서
부대찌개
하이브리
포장마차
김선욱
유언장
김세윤
막아주
대니얼
부글부글
압구정
하이브리드
계장
맘마
백범
서러
석기
선한
시큼
어긴
영정
오와
워커
입김
잔재
점원
피웠
훔쳐서
##거진
그럴게요
연구회
경영진
고위층
튀어나온
해수부
학점제
무작위
곰곰이
아메리칸
거등요
녹록
반출
버드
부세
비약
산속
상할
생방
성탄
수질
신민
아네요
외경
저울
증빙
토익
한소
환대
##로워
##바글
##맥상
가만있
달려간다
이랬었
이웃집
외로워
동창회
다급히
스파이더
초인종
바글바글
독극물
견학
계주
꼬여
남해
내국
능창
다분
동종
둥둥
불감
서문
세분
소각
수심
오롯
왜적
유창
절개
지탄
창설
최홍
치중
태안
틸러
합숙
##대진
##승원
##덩어리
합의금
기념회
잡혀가
조원진
브래드
과징금
거처
게라도
뉴튼
닥쳐
도방
둬요
말장난
무드
박살
약진
오동
적재
적군
정사
취량
침공
해시
##베이
아무래두
회사원
연합군
유엔군
삼국지
봐야겠어요
지름길
해왔었
상탠데
가석방
PP
기용
끼친
뒤쫓
로션
방공
불식
불합
설악산
순례
요직
저쩌
##달리
##절미
사회부
돌아간다
맞춰져
통신망
자라나
걸음걸이
아로니아
감내
권영
근디
명부
생업
세액
시오
아두
외대
요강
일병
임직원
증발
황해
에이알
생명력
타이거
승부수
처방전
고스톱
김광진
송파구
정호성
재래식
맥도날드
고여
공명
구내
눈감
대들
산물
알루
오형
외유
이끈
익힌
일수
전생
전태
조총
진사
진무
케냐
편전
##광수
##장갑
청취율
저작권
풀려나
모용수
이뤄지지
고군
공해
굽니
권투
남재
노량
덤벨
묘미
여라
예배
웬수
쥐어
충만
탕평
파랑
풍토
그랬을까
유명세
들으며
기관장
평양냉면
아이고야
경영자
나선다
이부자리
변함없이
조속히
캄보디아
곡식
뒷담
모피
벅스
심형
알지
오하라
일위
청순
통곡
하얘
화약
##분투
##조목
##론을
##수영
한국은행
감염자
환호성
양도세
기정사실
박보검
로이킴
로보트
갑론을
과로
그름
두툼
만인
매사
모과
박병대
반했
백숙
부린
승려
실책
은유
일감
작물
재가
져도
주황
찬사
태필
퇴각
활주
##두고
##마개
아이리스
내부자
된장국
정성껏
휴양지
갑론을박
경지
낙후
뉘우
덕목
두고
로밍
메트로
민재
선량
수혈
쓰다듬
윤하
을께
자태
정예
조혜련
중풍
증기
처할
추어
피신
확연
##도우
##우병
##건건
##워즈
밝혀서
오르내리
199
이경규
사사건건
강정호
구설수
강습
건더기
구본
군중
굶주
규율
끈기
낚싯
망극
바루
북촌
불똥
서예
순탄
야자
영심
주눅
탈탈
하두
화염
완성도
더블유티오
하드웨어
빼돌리
거둘
격한
고니
고뇌
공석
단죄
레디
숙면
식장
위함
지팡이
향한다
흐른다
##매장
##매김
##푸드
##게이트
다가서
자리매김
인사동
떨어트리
바라본
이래저래
신고자
아래층
트로피
김주혁
아울러
유관순
송년회
아수라장
무릅쓰
두고두고
내드리
논점
도스
미분
민어
방관
뵙죠
셰익
신첩
아군
어워드
연철
연후
육식
이티
이씨
이숙
저랬
점진
징크스
큰소리
통용
함수
헬리
흉터
##라이터
##능력
나머진
멤버십
심장병
연주가
할려구
나아요
보여준다
##고추장
문화재청
제국주의
우회전
까마귀
##스피어
셰익스피어
거소
기문
난간
날지
맞닥
물병
민박
비쌉
빨강
승산
실연
안달
여단
여교사
의과
이포
일깨
자갈
적십자
조민기
진미
진급
출사
투정
훑어
흐지
히말라
##토마
이제서야
과학부
살아날
달려온다
이정형
2014
노사정
전병헌
실소유주
흐지부지
거동
귀금속
그쳐
긴히
길쭉
농협
단주
등단
목례
문안
별점
블링
염분
유격
익혀서
전령
종용
지선
지반
진드기
침소
펼친
해남
##모레
##크라테스
##말랑
##날레
대표자
선수촌
내려앉
움직여서
박수현
대리점
하락세
웬만큼
기상대
지우개
알파벳
낙태죄
에디슨
말랑말랑
김백준
히말라야
간헐
강민
기뻤
명가
모나리
몸집
문헌
뭔갈
반신
발포
비담
사갈
서산
선양
승냥
십수
양양
왜군
외숙
우드
자넬
재회
쟁쟁
절호
조조
총량
칩시다
캡쳐
탐욕
튕기
튜닝
플라이
현우
##마을
##수엘라
비행장
출입국
원산지
멈춘다
신격호
모나리자
승냥이
3000
suv
다윈
대내
대꾸
도적
동산
두유
박한
부루
빠진다
속출
수료
였으면
잔다
접해
정찬
중추
##킨스
##베이스
관리인
지방간
수술실
체크아웃
마주쳤
제조사
차가워
낮춰서
불출석
오랑캐
불이익
알루미늄
강효상
기형
다쳐서
물색
배지
쌀밥
안함
애환
이윽
조여
척도
치켜
후련
##로틴
##막염
##뉴스
올려놓
법률가
바빠요
뜨거울
심해졌
박상규
벗겨지
민경욱
오달수
건만
기약
남인
덩달
몰이
무승
묻혀서
아악
오스
즉위
탱고
호우
##복자
##파니
##그러지
##갖고
생활고
태자비
조그맣
호호호
스터디
베네수엘라
제네바
파우더
주정차
압록강
그친
뒷조사
모직
버금
상전
손들
양강
에잇
염문
오갈
윌슨
잡초
죄명
주총
찌푸
차액
칼질
캐슬
큰형
탄광
펼칩니다
폐원
피워
호재
홍차
황치열
##대장
다가간다
보이차
알아냈
비교적
달리기
전환점
써야지
엘리자
매니아
차분히
유정현
서초구
박해미
움켜쥐
이윽고
가옥
그어
내색
놨잖아요
느긋
대등
때우
마하
맙시다
빠라
습성
엘레
오면
우먼
입덧
정영
좌익
콩국수
크크
포맷
해이
해녀
환희
횟집
횡포
##지마는
##저만
##펙트
그렇지마는
된다구요
상태기
살아났
회원국
크리스티나
이만저만
은하수
증권사
플래시
법치주의
김만흠
폐막식
쪼끄만
이휘재
김칫국
OST
겠지
겸허
계보
곤약
관현
나우
나만
다죠
명작
불후
서원
신예
연살
을래요
이프
이채
일류
주신
쾌감
홍어
##백백
##세우
##불성
미국식
이라고
자유주의
계신다고
무서우
정해야
아름다워
체육계
사상자
001
구급대
이강인
명명백백
무주택
구금
굴비
도려
동학
몸짓
박현
봐두
분도
비일비
설교
와봐
찢어진
추인
캐시
커브
파국
퍼부
##다행
##진다고
##메라
는다구
천만다행
참석자
감기약
유아인
갈릴레이
갈릴레오
휘둘리
수세미
스미스
불합격
비일비재
가려서
고초
국도
다잖아요
독창
돗자리
서슴
쇼팽
수의
안착
온기
의술
처사
친동생
퀴리
판권
피리
화웨이
흠칫
##상정
##수원
##매기
##허가
돌아가실
흔들렸
접근성
창업자
갈아타
중성자
마이크로그램
여중생
쪼그만
맥아더
버젓이
개신
거시기
국문
그려서
까딱
냉채
도표
모빌
밧줄
보톡스
순이
안재욱
예명
잖여
정액
킹크
타개
팔린
##법인
##머스
오른팔
세워져
레이다
따져볼
도둑놈
배고파서
##위원회
고상
고농
광진
내준
단무지
망정
머스크
미담
봐선
부조
사발
석회
송유
순한
술병
워즈
장준
차남
컨벤
클립
핍박
호실
휴먼
##줍니다
##쫀득
지켜본다
전기세
김영우
어려워질
섬유소
가속기
김준일
대마도
풀어놓
협동조합
자위대
아사히
가이
나지
나들이
맛나
먹혀
목재
범퍼
사은
삼엄
순전히
아다
연지
질겨
창식
청혼
키트
티격
하명
하다
현주
황명
##비어
##기능
##사태
경호실
요동성
대마초
폭격기
브릿지
계모
먹일
무임
미학
분만
살생
서연
시발
육회
주승
캥거
티오
판독
포고
흥얼
##ar
이상돈
지지부진
문화일보
스트로
뿌리치
희생양
상하이
이주영
서기호
삼각형
해줘도
신의주
고군분투
활주로
캥거루
광우병
깐깐
등심
버라이어
산길
산중
숟갈
승합
안식
엑스트라
우롱
이박
인먼
장희
징수
천차
파혼
힘껏
##서도
##지기
##에미
##혜선
##먹이
못한다고
가르친
고소득
복지부
몰아붙이
덧붙여서
경제학자
현충일
윤성호
만년필
남재준
컨벤션
버라이어티
닉슨
다퉈
리딩
멘붕
배탈
보탬
속사정
액상
오실
유품
이직
지양
차은
충주
커밍
피에스
##은숙
인사이트
중심지
사무장
신데렐라
드나드
덕수궁
인플레이션
추기경
강승
격앙
권순
마쳐야
막중
생화
알맞
연민
연배
와트
응모
이여
자랄
잘리
죄수
카달
큰데요
토종
피임
##지긋
##동성
##렉션
찾아낼
스타워즈
어려워졌
붙여야
관세청
김호성
지긋지긋
쫀득쫀득
자릿수
기죽
남침
능동
다야
덜미
모태
비책
야무지
양재
완결
용접
원화
원안
좌천
착해
흥신
##분계선
##버릇
##들레
##타임
저녁때
군사분계선
몰려오
가라앉히
휘둘렀
식도염
사포닌
전셋값
다나
문인
미꾸라지
뺏겼
사강
썰매
정강
준결승
초년
촌스럽
총국
퍼스
하품
##조각
실제론
여행기
밝혀져
의료법
코스프레
고령자
서둘러야
다녀올게요
얼만데
넘나드
PT
가차
괄호
교문
남우
대호
데드
들러서
따졌
라미
문질러
속아
얼려
오판
우면
윤창호
적이
참회
체리
헤엄
호법
넘어져
참여연대
유엔사
전시장
체육회
성명서
심리학자
방청석
유성호
천문대
활기차
조목조목
간극
갤럭
갯벌
국교
깜찍
꺼낼
드만
로얄
만리
삼인
세인트
소세지
아웅
역지사
웨이터
유권
윤봉
의당
전말
진찰
천제
총책
파운데
파운드
표류
허경
##석진
##직자
판단력
통일전
김성주
김대오
패션쇼
이진충
신해철
불감증
차은택
역지사지
파운데이션
간데
나주
내딛
등본
모나
반겨
벅차
분유
사려
순리
예기
외근
철새
탐정
팥빙
패전
호통
히터
##연정
그럴수록
건강식
계신가
강의실
김태희
여대생
청해진
무더기
김소유
팥빙수
간밤
강해요
경수
고야
급부
기행
내셔널
네다
독거
뭉개
발뺌
방광
밸브
산출
송창
승전
신승
어명
장님
출가
친부
탐나
하급
허둥
황진
##티지
돌아볼
교통비
한가득
섬유질
갑작스런
수혜자
갑갑
급진
내통
들을
백업
백설
양천
오열
오릅니다
우원식
은정
준대
집시
챌린
컸었
태클
하아
해역
##어드
##자부
오래가
이동하
무기력
성인병
스테이
김민정
방울토마
나뭇잎
극소수
방울토마토
골격
귀결
껴서
꼴통
단과
들켰
류승
무근
민의
범칙
빅딜
소급
신음
심해요
악물
알프스
이서
정철
청포
탕진
회차
효용
##아졌
##택시
##거려
##댕이
##돕니다
아니하
입장료
보호사
이재오
고양시
힘드신
토마스
패스트푸드
득표율
는대
다람쥐
동글
들오
라이터
별관
삼법
수기
숨쉬
실온
여실히
우렁
인부
자필
초이
하라
허심
##만별
##내미
##타주
##망대
##냉이
진짜루
에이엠
범죄인
움직인다
안전벨트
들어갔었
바뀐다
재수생
신상품
시공간
서영교
휘말리
천차만별
갈께
개코
낮춘
단비
대풍
더군
라오스
래든가
미시
미신
어정
우분
원기
윗집
일출
자성
장작
조우
치도
치오
편식
하느님
##더러
판매자
모자이크
떨어진다는
부러웠
차려입
최진규
발병률
장동민
박은주
아낌없이
앙상블
감초
교전
규약
늦잠
다다
다량
담합
대시
무형
불태
불능
엄한
완구
원청
자만
재킷
진시
크레인
탱글
털썩
함락
해했
##인물
##조류
##거렸
##탱글
이용료
만났었
하늘색
다수결
김민희
이인제
탐사선
분식집
변별력
개신교
탱글탱글
김생
깔리
높인
당위
소총
씨네
안과
알렉
야합
의성
이글
자퇴
피눈
해전
혜원
##주현
##클린
드러낼
다녀서
챙겨왔
공포심
발레단
무용수
증여세
충무로
정병국
피눈물
격분
노정
다인
동심
룸서비스
몰수
믹서
박소
봉급
빠리
선구
스지
시다
시녀
이범
인포
저택
지른
참살
쳐내
토벌
행하
호락
##포폴
##선거
##즈음
상황실
프로포폴
보호관
재벌가
123
스위트
아랍에미
휘두른
네다섯
아랍에미리트
고압
교부
권수
난항
든다면
떨린다
마카오
미스트
성황
승지
시전
식생활
안이
안상수
약방
이파리
파랗
해동
해할
후드
##렁거리
##맞춤
는다거나
머리띠
회의록
교과목
이승규
종이컵
주거비
되돌릴
쫓겨난
소행성
페미니스트
대타협
승강기
##기념일
범칙금
갇힌
공상
군무
대모
독식
말구
말문
먹인
바우
법한
별별
별칭
보시기
살핀
성큼
십시다
아폴
어겼
원균
장지
첩자
최인
취합
파생
##보글
##급식
따라갔
소중히
무상급식
스탠드
수목원
웃겨요
엔지오
유대인
가전제품
정미경
두리번거리
티스푼
프로그래밍
보글보글
문하시중
직격탄
스파이더맨
김천
니코
대망
마오
반원
별건
보세
빙판
뽑힌
사피
세뇌
쓱쓱
안치
어진
오간
우신
원체
육영수
의예
채권자
타박
폄훼
평준
플로리
효린
##장사
도와줘
자연히
개발자
대학원생
클라라
동그란
담아낸
의예과
강형
겉옷
게르
관군
기린
냉국
덤비
덤벼
봄비
불금
살게
소도
쑤시
씹니다
엮이
온화
옷걸이
웨스트
컬투
플리
하물
협심
홍시
##노미
##로이드
##르크
##회식
##은색
다른지
돌아섰
전문직
몰라라
파이널
알리바이
김현미
보유국
소지품
친군데
추도식
한소끔
김생민
공희
구공
국책
급제
네임
논어
뉴트
대견
도톰
떡갈비
빈부
색시
선교
순회
실증
쑥쑥
약식
오나
위수
인스턴
지은
지숙
화환
화투
후딱
##언정
문제없
구속영장
이럴까
성장기
담당관
들여오
2013
여신상
지피에스
뜯어보
번번이
스포트라이트
인스턴트
극비
나토
낙원
남이
눈썰
댕겨
덮어
뒷문
때려서
랬지
맛난
몬스터
문병
보루
볼모
뿌옇
사생
시놉
실로
썩이
얼떨
여요
원종
윤영미
인피
잠금
장손
진재
짠하
초범
칭하
콤비
톱스타
판빙
필욘
합계
항간
훈육
##이디
##코프
##통일
##파라
##탄회
##본부
이미자
중앙지
지하수
교도관
주현미
비쌉니다
갤럭시
허심탄회
시놉시스
판빙빙
거국
경륜
구장
국왕
급급
날릴
낮췄
더구만
도맡
리프
말아먹
미나
밀치
박중
배척
서약
수속
실려면
안절
예서
예열
유심
이예
입혔
장신
져라
주안
퍽퍽
합해
허름
협주곡
##도장
##부절
##치락
##현동
##직입
전화벨
보수당
나갈지
부딪혔
절도죄
광역시
기왕이면
저널리즘
2020
단도직입
양기대
지중해
안절부절
기이
꺼졌
다툴
단수
대범
래야
발렌
빤히
상선
소희
술값
쏜다
욕조
의인
키포인트
표했
하남
혜민
기다립니다
청년층
놀라웠
김경진
완벽히
김상조
현행범
바닷속
세이브
전라북도
유적지
나폴레
하물며
개년
김강
노점
두목
럭셔
매화
볼리
사비
아킬
에로
유불리
인준
일급
장물
창밖
폐교
퓨전
보여도
경찰차
역사관
전기료
뛰어오
김대현
쓰러질
김지영
신호탄
발라서
시끄러웠
반짝이
불어오
장려금
라던데
럭셔리
간질
거릴
경도
고졸
극진
더미
떠받
뭐요
박관
밤샘
부호
새엄마
신안
엇박자
완수
움츠
윤소
종속
지참
지킴
청중
총출
호로
##슬란드
##게이션
아이슬란드
지역주의
조선족
으셨는지
다녀가
발전기
재산세
사기장
기울여야
이원집
내비게이션
무제한
피카소
원어민
흥신소
고온
띕니다
명자
벌벌
본심
선데이
센데
시군
앞머리
엠아이
온당
윤아
일공
절기
조준
째려
최만리
타이트
태생
폭동
희화
##켜서
된다든지
반대파
달라져요
느껴야
생긴다면
생일날
우울해
##니스탄
##에프오
휩싸인
전라남도
승합차
나폴레옹
36
다던지
대각
뚫렸
라이스
반군
빗나
산입
손예진
슬펐
암울
칙칙
한기
한재
휘날리
##용준
##협상
자유민주
주변인
##아버님
계산대
빠져나간
002
이석수
보름달
기득권
아모르
황장엽
사계절
가야금
구심점
총출동
구연
노랑
로다가
망쳐
미대
반포
베푸
뻑뻑
삼지
상명
심호흡
아크
알록
엄연
유에프오
의경
짭짤
철원
초면
##병원
##징계
드셔서
마셔도
망가졌
한중일
교차로
기출문제
성악가
신진대사
박시영
감출
거시
기네스
긴가
눈짓
다져서
더디
둔화
딸린
물컵
뱀파이어
본국
선크림
우진
자력
작두
주취
중신
출항
험악
화교
##무휴
##끄럼
##웃음
사이비
전문대
운영비
축구공
청구서
부딪혀
응답자
포도당
박태근
걸으면서
연중무휴
랜덤
리필
맘껏
병무
서성
서럽
시생
엘이디
외향
윤형
융통
잊어먹
자장
치상
켜져
풍습
##프터
##태격
##취업
교육법
두려웠
흘러서
예비군
이겨서
정유미
날아다니
알레그
한문희
김만복
손꼽히
예식장
티격태격
괴유
던진다
도령
독선
땝니다
떨쳐
명숙
사가
성준
얽매
위키
이청
이질
잔금
재야
컴플렉스
팝업
##내장
바라봤
취업률
일시불
이병기
다닌다고
중개사
클라우드
어정쩡
격동
겹쳐서
과소
구정
군영
그네
내어
내포
누드
마네
미슐
비꼬
비웠
세영
씨엘
양미
어감
원외
이딴
정설
주책
지용
지혁
질색
캔디
헤르
##레스트
김성신
감자탕
상속세
문젠데요
으리라
건의안
노량진
사은품
갈망
돌잔치
마식
무의
반한
밤하늘
방비
복리
불충
속수
약했
장구
절임
커넥
태조
토성
톨스토
특산물
피서
하프
혼잡
흡족
##비아이
##테리아
##릴께요
동의서
걸어다니
에프비아이
청소년기
부탁드릴께요
맡겨야
밀려나
싱크탱크
엊그저께
돌연사
유흥업소
강태준
지날수록
미슐랭
톨스토이
400
거머
견지
고우
길들이
넘쳐나
높여야
닷컴
딸려
릅니다
먹힐
모면
박효
비술
성모
성교육
송문희
이노
이항
인승
족구
치영
친선
카톨릭
하동
헤비
화들
##충돌
마음고생
스타디
다이어리
끊임없
이뻐요
어설프
플루토
화들짝
꺼낸다
미온
민우
백과
부령
사의
세정
솔깃
아깐
악성
여잘
왕족
우후
원해
음향
챕터
처단
타락
향식
##단지
역사학
합의체
어울려서
일찍이
성대현
아스파라
스노우
가다듬
겁박
낭송
내키
누웠
도형
두기
물으면
사일
성조
손색
송지
수의사
시종일
안태
원통
으악
이백
제니
해조류
회대
##남기
##마킹
##핑크
찾아봐
대응책
달려드
여쭤본
스포일러
늘어놓
김미화
통행료
벤치마킹
치오티
스타디움
시종일관
고라
남불
늘상
라니깐
마십
바질
바친
바싹
반달
비망
삐딱
스스
슬럼
얽히
역부
염도
올래
자생
재협상
전자기
조중
참수
타가
탁재훈
태웠
패티
하시
홀수
화음
##달록
##뚝뚝
생각난
된다거나
지나쳐
트럼펫
일정표
살펴본
무더운
이보게
고아원
이철희
애완견
연산군
알록달록
강가
교신
급성
김송
껄끄러
노노
달르
독신
두터
리디
방방
본관
부역
셨을까
시나
씨스타
야시장
영결
조업
주니어
최희
터놓
툭하면
해뒀
현저히
후끈
후루룩
히딩
##카로틴
##악기
검색창
돌려야
뒤집혔
계실까
대가리
내세워
스카웃
유언비어
달아났
사문서
베타카로틴
재력가
히딩크
급작
냉수
뒤섞
메디
봉착
수니
앞섰
야수
에고
여장
유한
윤허
일축
재치
조별
치대
피츠
##소원
##안전
한국군
아프가
추진력
발사대
비상구
김동철
나빠서
막내딸
김재규
이주민
합법화
비형랑
헤아려
애드립
인피니
급할
뒤엎
들린
병상
불태우
사저
생필
스마
시늉
실탄
야한
완충
원성
자폐
집배
치이
홀딩
##로로
##도둑
##터면
##채기
##무책
##수건
##할머니
자유당
지켜서
그렇지만은
두려워서
불가역
연출가
선호도
더러워
박종철
하마터면
플로리다
속수무책
관자
기댈
는군
니콜
대나
리용
리치
리알
먹먹
무가
문성
시초
아꼈
임효
절규
조광
지로
찔렀
클라이
함박
##비엠
##호락
##들인
##폴리오
다가갈
내리막
배달원
폭력배
도망쳐
그르구
비싼데
메모지
좌우명
가계부
외할아버지
홍익표
포트폴리오
숭실대
엘리자베스
호락호락
생필품
간디
갈취
말갈
명인
몹쓸
미키
배팅
선교사
승일
예물
외손
이점
이코
정렬
종현
포천
##하고
##유사
##둥절
습니다만
바라봐야
노동법
물러설
슈퍼스타
창업주
어리둥절
과감히
들으셨을
갈매기
건진
교무
금치
꿈틀
네버
누가요
댄서
동자
딸내미
멜론
부조리
수조
어질
으므로
임해
찰리
튜링
흉부
흥정
##빼기
##예프
한다니
다녀갔
살아난
큰일나
옮겨야
만화가
다녔었
부턴가
으으음
계량기
플루토늄
아프가니스탄
거위
관공
드럽
몰릴
분통
불펜
사귈
샤인
선반
셔갖고
신학
쌓았
엄살
유야
익산
임현주
재상
함축
히스
##월드
##민정
##학년
##엔스
그리워하
영화사
김정호
토론토
공정성
건조기
날아갔
떠난다
후견인
갇히
갈라고
그을
글귀
김복
니놈
매복
명물
모공
배반
복식
본드
아차
여차
이토
이긴다
잖냐
종자
추발
한낮
한혜진
황소
##우재
##유국
##숫가루
나이스
투표장
국방위
언젠데
코미디언
이루어집니다
소린가
맞물려서
우크라
아랑곳
사피엔스
금일
동장
들판
망쳤
묘역
부셔
스팀
승화
쏠려
어영
엔가
역력
우셨
자승
재청
정일
주어
짊어지
케잌
퉁소
피치
흔든
##르타
##미성
##연구
##저우
데려다가
코스피
부러진
이종근
플레이스
나빠요
형편없
무고죄
배심원
챌린지
강당
검도
굴곡
그럭
냉소
담갔
도독
도래
란국
류여
린다
만신
부관
뽀로로
소회
쉬쉬
스가
시추
심청
앙심
옥자
자칭
재취업
정돕니다
중거리
쿵쿵
토의
토닥
팔다리
폐차
포획
하부
한영
회정
##토끼
##산성
##or
##파람
##팔트
내일모레
불러오
놀이방
기울어진
블루스
거슬리
아스팔트
두드러지
이시형
십자가
류여해
김비
내드
눌리
몸소
문대
상념
세면
속설
약수
원판
이모님
조진
큰아버지
한민
허튼
혼신
##구마
##고속
##었는데
##때로
는다든가
대리운전
대장정
비대칭
나빠졌
롯데월드
기다릴게
살생부
내드렸
가린
건반
고라도
끝판
누출
동공
묘연
미숫가루
반팔
버틴
본업
사살
삼선
설훈
시아
어멈
으유
일맥상
장진
저력
종국
직인
쪽방
콜로
탈수
투스
퉁퉁
파래
피칭
헹구
##서니
##시면
##레라
##케이크
##큘럼
이러실
아하하
들여야
이승훈
그르면
수익금
이영애
가로등
갈라져
깜빡하
구제역
아랍어
커리큘럼
자유민주주의
일맥상통
고분
고국
끊긴
단상
뒤틀
링거
민구
산호
애용
야유
어업
연신
열창
왁스
이응
저고리
종족
차출
천황
트윈
파김치
협곡
홧김
휘파람
힘입
##미사일
##방망이
##바라
##퍼런스
정치사
달라도
법원장
계산기
신동욱
공론화
시트콤
이뤄지고
윤태영
버금가
협심증
간음
굳히
급선
기웃
맹물
면하
모음
상이
여그
외동
외웠
위독
이입
장녀
장안
적신
정훈
진가
천식
촐랑
통기
포유
플랑
할텐데
함소원
##현준
##태후
##그러운
들어라
가까스로
구매자
넘겨서
이루어진다
이현우
빼앗기
성북동
김신영
지겨워
생김새
천제단
아폴로
과육
기권
놨으니까
덜하
뒷산
무라
붕대
세도
야스
약탈
양화
에펠
오이지
일률
재용
존슨
진의원
펀딩
포드
호일
회항
##와인
##천군
사업체
치료법
시원시원
트리오
마술사
장동건
차용증
박중서
역부족
SBS
경신
경동맥
곶감
기역
나신
널려
넓이
노승
눈꺼풀
다림
돌기
든가요
들었
루즈
밀크
발화
부엉
시보
신일
연시
오유
유턴
유목
율동
줄라고
지이
진희
탱탱
헤아리
황기
##하우스
##트려
##저러
사고력
한다는데
답변서
속상해서
무궁무진
전과자
XXXX
사부구
노부부
비망록
거덩
건도
고착
그렁
남상
내시
녹조
만졌
메주
모질
미장
베스
부으
부메
삐라
삐삐
산뜻
생가
세례
세단
수봉
악동
액면
역경
연해
오차
유분
좌중
증원
지어
진짠
타일
태민
티슈
페북
한탄
해맑
##마켓
##우뚱
##보도
에스트로
신청자
재미나
지도력
드린다면
사라집니다
간다구
배상금
김현성
부러워요
생강즙
차단제
배운다고
부적격
김병민
조리법
친해졌
이은미
소나타
프란치
의붓아들
두만강
마식령
부메랑
에스트로겐
결박
까놓
납시
농림
딩동
매끄럽
멍멍
명주
몸담
미필
발성
삽시다
속여서
송미
음직
이필
이룩
재검
콜드
투영
핵미사일
훈계
##상조
##메이트
그리도
기대치
우선시
의견서
보였었
레이건
버려라
생리대
병장기
우루과이
난장판
강미
공당
그칠
대열
둡니다
리라는
만물
매거진
문예
민자
박완
받치
벌렁
빠뜨리
빼주
사서
순애
슬라이스
시애
쏠쏠
역효과
엽서
윗사람
은둔
자청
쟁취
저음
지으며
직간
찬란
총평
취객
타율
토트
필승
항로
후세
##간다는
##이야
##준희
##찰청
##앓이
드리블
아무데
아무쪼록
완전체
에이씨
러시아어
아쉬워하
아름다웠
브라보
후원자
괴롭혔
파괴력
이소영
대검찰청
리베이트
강황
골자
교단
눈시
다우
대막
데시
뒤척
등용
맨발
명과
박히
박건
살수
상충
세르
술상
스핀
식은
얼렁
웅크
천도
클렌
폐허
형철
휘둘러
##은영
##혜영
##처녀
##목마
##퀘어
피해갈
에이핑크
흔들려
코너킥
모여들
경비실
양성자
회전목마
보살피
맞물리
노년층
대청소
빅토리아
눈시울
관둬
귀담
깃털
나고
마운
머스
메츠
반년
본받
부다
부탄
상민
상엽
섭니
심수
안젤
어게
육로
융자
일컫
채워서
치수
토픽
포렌
##다닌
##도원
##고구마
인지라
느껴져서
골프공
전원주
이소연
쓸모없
당구장
PPL
식은땀
어게인
포렌식
감귤
곤욕
구선
다매
달한
담글
두문
묻힌
바쁩니다
발열
사구
소사
어원
오매
왕관
요라고
원목
일천
집구석
총명
턱없이
퇴거
트이
풍광
호원
홀리
홍련
화단
##정리
가정집
들어와도
올려요
들어온다고
노려본다
고난도
네이처
김홍걸
자화상
공매도
고막
끄떡
노랠
디아
디에이치
목구멍
박승
사요
소크라테스
안사돈
알로
오감
은커녕
주걱
주어졌
직시
참깨
처갓집
추포
혈맹
##다드
##he
##차별
지만원
선거인
가져다가
지구촌
모자랄
메르켈
배고픔
붙잡힌
살림살이
198
으라면
양치질
안대희
선착순
김나영
관공서
과당
내뿜
드래곤
문영미
밀러
방구
본방
샤넬
수두
실토
알콩
옥희
온열
우경
자린
적어지
정벌
제부
주마
캡틴
팥죽
필러
혀서
휘하
##pl
##달콩
##콘서트
한국식
넘어진
김영희
법무법인
슈퍼마켓
005
신지요
이인철
올라간다고
조희연
거니와
소매치기
장원준
무르익
터무니없
저작권료
뒷담화
모빌리티
대각선
알콩달콩
가식
갖은
걷잡
경조사
나다
날치기
듭니까
떠다니
만정
무예
바티
블러
빼곡
식수
역세
오장
오복자
월북
으흐
이삿
잠긴
좁히
최유
카펫
큰언니
클레
타진
펴지
피소
헌금
호황
회초리
##et
##세서리
생각납니다
따라붙
교육자
달라져
기록원
의료인
가르쳐야
선보여
내보낼
박성준
얼만지
무방비
불순물
상류층
윤봉길
위수령
직간접
이삿짐
각색
고열
글썽
난국
돌멩
들떠
마인
만우
미덕
박테리아
복종
숙련
압송
어법
영접
온건
왈츠
위세
윈도우
인어
자미
자물
출금
크릴
황석
##란스
##해전
##딱지
##댓국
노동계
사무처
돌려줬
진술서
노조원
상영관
야단치
횡단보도
떨어뜨려
어우러져
속속들이
성북구
김범수
양희은
착공식
무승부
알레그로
돌멩이
가부
결기
골대
교인
교권
꾸몄
달째
대보
대납
려야
보자기
비궁
뻐꾸
암묵
어루
으르
자잘
전언
조동
조갑
합헌
##티콘
##와트
##무침
##런지
##커리
##텍스
개인전
지나다니
가져서
아침밥
응원가
보낸다고
설계도
고장난
004
노원구
필로폰
주호영
이택수
##고속도로
프란치스코
강단
개띠
곡성
금동
내구
노가리
눈초리
도통
동파
레미
모라
바닐라
사복
성루
순댓국
시경
식힌
악질
야속
야박
없앴
올겨울
위엄
창백
태워서
해밀
해파리
##동설
##사탕
##머닌
##투합
##투족
한국일보
이분법
여론전
근육통
버린다는
항공모
준다든지
지점장
이모부
006
동양인
슬리피
교직원
일거수일
의기투합
주황색
아킬레스
플랑크
일거수일투족
가희
돌볼
뒤꿈치
말려야
명세
신한
실어서
엘디엘
연안
오윤
인색
자도
장염
졌으니까
짓거리
칠판
태현
허우
##저곳
10000
이곳저곳
어긋난
비벼서
으으으
프란체
흐트러지
카네이션
관현악단
김계
단번에
들러리
말초
머플러
먹물
무참
묶음
민도
바흐
박신
반향
백반
사익
샴페인
신유
써져
여식
올께
유고
음해
이우
주만
주필
주당
중수
지세
지운
텁텁
팔릴
함의
##젠테이션
교육학
아닙니다마는
독립군
김지원
감염병
활발히
경로당
디스플레이
무인기
관악구
등기부
공예태후
뷰티풀
난데없이
이도형
라운지
김갑수
얻어맞
가림
갸우뚱
고친
관미성
누난
느타리
도윤
독방
독촉
만사
만석
맞먹
맺힌
명료
무뚝뚝
바래요
방석
병합
섞여서
시름
십상
원탁
육조
의민
쪽팔
착안
책가방
출몰
침통
편들
피운
홍진
##장수
##숙고
##처리
##천리
##꼭지
이제껏
재판정
생겼으면
심사숙고
고발자
미술품
연속극
떠오를
떠오릅니다
트레일러
임창정
카니발
만우절
뻐꾸기
항공모함
38
가영
가본
갓길
검소
겨를
견이
굴려
권노
누를
디피
따스
레게
머슴
무속
무슬
무턱
배불
범하
브레이
선천
어렴
예원
웨이트
자명
촉각
최원
춘복
카시
피렌
헬륨
혼외
흡혈
##마이
##스케
전해철
아닐세
자연인
안내문
귀여우
레드와인
소용돌이
김연철
세로토닌
추출물
함경북도
박혜경
크러쉬
토트넘
대막리지
권노갑
가명
고쳐서
공생
다릅니까
단의
단락
덜덜
돈벌이
뒤끝
들춰
뚜벅
비려
비친
상쇄
선인
성벽
숭늉
승희
신났
양고기
열전
용암
우거지
위문
재하
죄목
초구
초장
축축
타점
파르
패거리
팻말
피살
허승
효녀
후대
흐를
##사위
##창훈
##깜빡
정치범
지원군
떠나가
냄새나
매운탕
깜빡깜빡
망가진
마찬가진데
혼외자
갑봉
갱도
공언
끊겨
남정
냈으면
논조
또렷
뜯어내
레인지
만경
발족
백안
볼라
빈민
서유
숙원
씻겨
아레나
알약
애프터
옆방
음대
응게
잔고
제헌
조처
지열
찌든
친목
케첩
##성대
##졸브
##마님
에이즈
케이투
등장인물
교통안전
진료비
데이빗
담가서
삼국유사
두드러
안무가
마법사
다분히
추어탕
니코틴
가다
개나리
기러기
꽃잎
난도
둥근
말단
무하
물살
배타
상온
서가
속살
아린
여리
여간
연작
위트
은희
임우재
재소
전영
치하
트라이
파묻
홍기
화풀이
##순간
##상부
##거린다
김정근
구조대
마주친
해진다는
덧붙여
끝났으면
교황청
풀려났
빼돌렸
조미정
뜬금없
주승용
영결식
들었었는데
어렴풋
피렌체
개의
공터
국부
김하
꼭두
녹내장
답례
도운
뒤졌
떨치
리다
멋져
못생
몽타주
배용준
백의
병세
사별
설운
억장
용혜원
위촉
일컬
잉크
잠입
장량
저의
저변
준단
지부
픽션
한수
험담
##진창
##프리
##클러
##물질
평가전
머리채
불리우
아름다우
만족감
될까봐
달걀찜
이모티콘
고지서
사돈어른
연평해전
엉망진창
기왕에
뜨거워지
스프링클러
군량미
변속기
강혜
격상
고철
글러
령도
막스
명실
무의식
봉작
사활
산란
쌍꺼풀
저라
정범
초능력
탈바
학도
##도호부
##버시
국민학교
김정민
정신력
지도층
체크카드
주사기
필수품
되돌리
쓰여진
안동도호부
진흙탕
질식사
초계기
cm
게릴라
결부
노이즈
놀림
눈알
늦출
루틴
루테인
마드
맞불
매료
명당
명장면
별의
빠빠
삐끗
선방
얼씬
육포
임영
자를
재조사
정론
중얼
증축
촌장
충치
호미
##나르
##선지
##새우
##미오
##러치
##반구
##활약
그리로
그랬잖아
피해액
김종국
뛰어든
하이고
소년원
부딪힌
김수로
연방제
어우러진
박준형
대물림
이글스
별의별
낌새
냉증
노파
단시간
당나
등대
뜨개
모서리
못된
복선
볼지
봐주
송이버섯
식탐
옥이
웃길
작문
잘사
중임
##시안
##현실
##수거
##껍질
정치국
부동층
사유지
옮겨졌
120
갈비탕
휴게실
해드려야
조수미
사절단
가든
게나
까나리
모사
물놀
번져
변변
분사
분별
불임
비번
사스
소니
순하
싱거
언사
엉엉
에비
외울
윤대진
존스
쫙쫙
##지물
##며시
##수단
##태평
##메다
투표율
한반도기
보장왕
늘어납니다
민족주의
건너갔
진료실
부적합
프라이버시
이뤄지는
아울러서
도화서
집배원
탈바꿈
가감
경환
경표
과음
관음
국격
단임
도당
동민
라꼬
린스
매미
맥박
민선
백경
볼튼
뼈아
사삼
손끝
여드름
일색
자카
전치
줄서
진즉
쭈꾸미
찌그러
창검
천왕
추임새
파렴
해본
해볼
후아
##포드
##st
##제리
##VE
그건데
알아낸
상담소
빠져드
올려다
나무라
훈련소
나갈려고
이동식
포장지
소환제
부른다고
엇갈린
아랫사람
정찰기
불명예
경의선
우즈베
에버랜드
드로잉
통일전망대
급부상
파렴치
곁들이
극성
내건
당적
리브
마피아
매생
맹점
맹활약
반민
반해
밝아지
백발
비나
뿌릴
서남
식전
쏘리
양회
양립
열띤
온종일
왕위
요오
육일
증대
진두
평민
포식
풍력
항문
후식
##라치
우리말
마지노
도와서
데이터베이스
당한다
으려구요
김학의
장미화
용산구
가위바위
응응응
구구단
이야긴데요
사대부
쯧쯧쯧
이다혜
깨어났
김옥균
시발점
가위바위보
경례
고모님
남대
남발
대대로
뒷전
따루
띄웠
메탈
분다
비포
석고
아키
억양
얼추
옥스
움찔
자급
장훈
정박
천생
태상
필적
##채소
##틀랜드
인터폴
사라진다
전반기
김수미
빼앗긴
항암제
컨설턴트
그레이스
최승현
##정부제
포상금
맞아떨어지
빈대떡
금은방
우즈베키스탄
CG
계발
군들
궤적
기방
끼우
나약
담기
동질
라시
로케
매서
무실
바쳤
배합
벌점
봉인
불우
슬로우
양아치
오영
이을
잔해
존립
좌장
책봉
청룡
퍼진
핑거
호랑
혼전
##리사
##에르
##작물
영상물
지정학
열린다고
이영희
뜨거우
조지아
은수미
영환데
안드로메다
손정혜
병무청
안태근
개도
게이지
과분
기싸움
김향
나위
누운
능사
동유럽
뒷이야
딸랑
리처
방불
변사
변덕
북일
설칠
수발
아찌
안장
에라
여시
온대
우가
유체
이찬
임지
저수지
종단
죽인다
중문
체증
텐션
티엔
팔레스
페루
플레
피어나
필두
황선
##al
##디스
프로이트
특히나
기다린다
이동욱
마늘종
이리로
개그콘서트
느라구
어려웠어요
망가져
막대기
해준다면
이방인
라틴어
인피니트
부엉이
뒷이야기
팔레스타인
골수
꿈꿔
도종
목전
문진
바야
바를
보금
색이
에일리
온지
용준
웃긴다
원문
일손
주막
쫄면
창단
쿼터
평지
후려
흐린
흥겨운
##나이
사용자
나갈까
걸어온
만난다고
통계학
번역기
건너뛰
수용성
거주자
동창리
가져와야
지킨다
으이그
아세안
보금자리
강소
계략
고픈
고준영
그중
내무
램프
루시
매연
메스
묵철
배속
배회
살롱
소시
시동생
심포
심합니다
아물
어록
영유
온대요
와플
우우
운다
윙크
유황
인마
장학생
저물
전합니다
지칠
채경
체장
친지
탈의
토목
편했
##재주
##테나
##앗간
##닉스
에스이
알아낼
자연산
공연히
걸어왔
생길까
채워야
샐러리
몰아치
때려치
맞춤법
대치동
맞대결
활기찬
선거인단
건장
공여
꼬맹이
느냔
레알
명국
모국
몽둥이
민들레
밀릴
방전
베어스
봄동
뻐근
산만
서한
서천
아흐
외침
인품
자며
잘나
잡니다
첨언
충심
폐가
하찮
항체
현저
협소
##생각
##카메라
##블릭
이어진다
데려올
흘러간
코스닥
마셔서
속상했
애국자
이를테면은
장가가
이희진
가마솥
저격수
막아서
검모
곰팡
는고
다지만
덥석
도감
동량
막힙니다
모듈
묵비
믿겨
바랐
불끈
섹스
슬램
식성
실속
아네
약해요
예멘
오자
왓슨
웰빙
응할
장흥
제복
중과
지쳐서
철근
초속
추려
톱니
특구
피한
필시
할튼
##리니스트
##성훈
다는군요
지방세
대리모
흘러갔
예쁜데
부러졌
우수근
주무관
트로이
김민석
바이올리니스트
기껏해야
어설픈
전광판
황우여
생화학
검모잠
갸웃
공손
교외
났으면
따내
떠내려
마스코
머그
방부
병문
비쳐
빗발
상투
수화물
식료
영해
윤병
정품
제빵
조의
주량
중징계
지존
징글
체전
출렁
캄캄
컵스
페인
홉니다
##자원
나타낸
가까울
한계선
김기종
배고플
과도기
008
007
놓여져
대원군
해안가
부침개
김근식
내어주
귀촌
기쁩니다
납기
능멸
라지만
러요
매끈
불청
붉은색
스쿼
악착
양은경
이쯤
잉어
잘려
잡이
젠트리
죗값
지글
카자
패기
페이크
훈민정
흑미
##재단
##을지도
##베르트
뉴스룸
전해진
무서운데
지하실
이종범
게시물
날아온
끌려갔
상실감
정우택
선제공격
성취감
박연경
되새기
뉘우치
원종우
훈민정음
가솔
가압
과오
꼬였
돈다
매립
머지
멋쟁이
모창
바운
발작
병들
북상
상해서
엠피
인산
인바
입상
자양
조망
죽여야
진액
한동
한몫
##시고
##가물
##스러운
##누르
##금니
##말이
그리고서
지나쳤
##다면서
순간순간
아우성
들여놓
만난다는
신기록
주식회사
박상민
소린지
해줄까
카라멜
클로즈
나날이
성황리
아스파라거스
임효준
바티칸
무턱대
감춘
갠데
고법
광안
급락
농작물
눅눅
대게
떠먹
랩니다
모퉁이
미뤘
발신
부주의
빈센트
솜방망이
심성
알제리
애미
연통
예쁠
요긴
입영
전멸
직통
참지
최용
축물
카스
켈리
코카
코프
파이어
팽배
하일
##무야
##혁명
##게이
##느냐
##씌우
정치가
돌려줄
학부형
임명장
김대호
크리스탈
보리차
드신다
장미꽃
김미진
휩싸이
갖춘다
한결같이
강북구
나뭇가지
판도라
목공소
유야무야
자물쇠
무슬림
당나귀
가여
경종
껍니다
난제
닭살
될려고
맡아보
민관
보신
생과
서둘
앤데
어불성
어금니
옆쪽
유괴
조공
직거래
치울
타들
톨게이트
평정
해열
힉스
힘쓰
##다녀
##코지
나온단
축구팀
우주인
욕심내
녹음기
조현우
내각제
성범죄자
일회용품
조형물
경축사
고관절
마스코트
어불성설
건널
꽃피
본진
봉하
선위
솟구
심슨
여종
오세
윈드
저성장
주미
줍니까
지으면
찔끔
페널
할꺼
햄릿
화고
황홀
후광
휴무
흐릿
##구려
##일전
다가와서
알려줘야
조심스레
바꿔요
부정맥
걸어도
생산자
뛰어드
김태훈
스테이지
걸린다는
보조제
방사성
의존도
빨라요
흡연자
타고나
앞당기
색소폰
중공군
홀딩스
강예
끊어졌
난생
납입
두른
둔갑
드십니까
라비
리원
명왕
못생긴
본분
비열
송민
썸머
야만
엠브이
여과
염수
웅동
적국
징검
찜통
차치
천민
치주
택할
평수
하베
후생
후각
##지요
##미남
##OP
##수현
##국영
그리곤
그만둘
박근령
전해져
주제곡
계셨었
박정현
소방대원
분리수거
폭발력
사인데
몰려가
충전기
히어로즈
강지환
유유히
급선무
엠브이피
MBC
갈대
갓난
겝니다
경마
공적
기해
꽃미남
놨다는
늦둥이
다더
밝기
봄꽃
삐지
사야
살라
삼사
상계
승주
써왔
여심
여군
이롭
임병
저곳
주전자
초가
최루
큐브
파벌
파슬리
##아티아
##치산
##사이드
##예우
##바르
이상호
기본소득
지켜라
불러들이
단일화
끌어가
김지민
이병철
프린스
요동치
불러일으킬
새겨진
크로아티아
전관예우
개울
거인
격식
격주
깔린
노여
놨다고
달려서
말지
매혹
멘델
묶인
발차기
밥통
병명
봐준
북돋
상회
성진
송라이터
식대
언데
연좌
열중
용호
우지
유저
잉여
제각각
창덕
초토
치뤘
쾌락
토사
프롬
필라
하계
##지처
##동글
##스름
##런티
##슬쩍
##피티
##줘서
경찰대
고추씨
와이셔츠
아르메
정정당당
눈부신
허수아비
마지노선
가재
감세
강할
계몽
단돈
당락
똥그
란스
망친
몰려서
문고
물줄기
바베
백배
번졌
변해서
블럭
사옥
셈법
아치
액세서리
왕유
일몰
입마개
정색
짝수
짝꿍
청천
체스
칠순
커야
팔공
##마나
##투스
##랄라
##콥터
그래미
들어준
돌아선다
지나칠
관리사
인기척
놀라움
폭행죄
스물두
##라이나
에프엑스
수도원
동작구
발명왕
비빔국수
부시장
돌아다닌
장충기
헬리콥터
알로에
백의종
군림
등치
딤섬
떠보
리턴
물수건
밥도둑
백민
상경
서귀
서우진
설움
수라
순화
쌀가루
옷감
원색
이복
일호
자우
자강
적격
정력
종착
주라
중학
지져
진간장
최하
캡슐
태교
테이지
투지
판서
포문
했잖
현란
##러워서
달라져야
신문고
독립영화
고발장
쓰러져서
테러리스트
목격담
당첨금
한다니까요
제육볶음
가물가물
카자흐
징검다리
백의종군
감방
경아
궤멸
급수
꼬인
도산
드래
디카
라다
라스트
메이트
명제
문맥
물린
밀정
볼려면
서포트
성직자
셔라
소실
솟아
시면
아람
얄밉
양분
정약
징조
친아버지
##데르
##날락
##총사
정당방위
지켜줘야
이어져서
최대치
바꿔라
서비스업
좋아한
데려갈
이승환
시집살이
기울였
최진희
나아진
치우치
이뻐서
모욕감
경상북도
채무자
최영옥
강수지
초상권
들러붙
블라우스
가셔도
무자비
들락날락
감리
검버섯
경무
꼬꼬
날뛰
러네
리프트
마무
매요
맴돌
명랑
모내
미심
바칠
병든
산산
새내기
생식
순응
씨도
연승
오물
유현
자린데
잔여
재조
종친
중용
진운
징그럽
차려서
총파
칸막이
투항
항거
허이
##마당
##산소
##동산
##고시
##ns
##황후
##칼리
##탄올
##암동
##렉트
##숩니다
그만한
올려놨
끝난다
110
식물원
김수남
깜빡이
유세윤
소상히
바래다
가자미
박철민
뒤흔들
윤병세
갖출
건져서
공금
꼬시
다락
다그
덩크
도가니
리티
모씨
목장
묻혔
방자
방앗간
백마
백작
벅찬
빈집
빙산
서수
세조
송승
수증
신림동
쑥스럽
양방
역행
오창
운하
윤호
족적
족쇄
집약
탈색
태울
특임
행시
호러
호송
홍남기
흰머리
##선언
##스틴
##상가
##공원
##엘비엠
##저럭
##돈나
정신과
드러납니다
대비책
아쉬워서
실력자
해진다고
나빠질
브로드
이루어져서
민영삼
무진주
김순례
동글동글
하베스트
총파업
32
기망
기달
꼬투리
다냐
대적
리졸브
면전
목수
무협
봄바람
분개
뺏긴
삐졌
삼공
소탈
숯불
승낙
아만
약주
얌전히
엘라
와호
왕년
외야
이릅니다
인텔
자지
저촉
지단
쨉니다
청운
클러치
티티
판가
핑클
하염
할머닌
해저
헤치
현무
흥선
##지심
##어링
##기부
##장룡
##상우
##링크
##중지
##텔링
에스엘비엠
결혼기념일
지지난
살펴야
느껴져
우려내
사기업
스토리텔링
이종명
글로리아
신중히
표준어
할려구요
횡령죄
남아공
자이언티
모성애
블라디보
백혈병
훑어보
도려내
어루만
창덕궁
서귀포
와호장룡
곡차
구웠
글라스
나대
너그럽
뒹굴
땅바닥
망이
미궁
밀실
발설
변장
삼바
성룡
세속
송시
수괴
시었
싸구려
알짜
엔젤
오싹
원나라
의연
이두
전법
정소
중차
타우
현존
히히
##버스터
##보우
##받이
##셀로나
다른가
기다림
취재원
현상금
뛰어내리
보일지
불렀었
떠올릴
부딪힐
이영진
바르셀로나
어이고
사단장
망가뜨리
사각형
우스운
빈곤층
짤라서
레인보우
혜민서
해열제
중차대
PC
겸직
냉랭
네오
놔둘
득실
롤링
목소
물집
미우
박희
백기
병기
부고
북풍
불시
불어나
사놓
성호
송종
송해
쇄골
신보라
실직
암매장
영예
유식
일말
저해
조봉
친다고
켜켜
털털
푸근
훤히
##시티
##가드
##며느리
##숭숭
자꾸나
케이지
김치전
얘긴가
김동률
국립대
날라오
엄격히
소형차
실까봐
초코파이
떨어뜨렸
에드워드
커넥션
김복동
##태평양
간선
강탈
고삐
기복
남동
남파
대일
만전
뭔들
박순
별빛
불찰
불협
상석
서동
세션
송인
스쿠버
식견
아고
알형
여니
웰컴
인솔
찐빵
치웠
콕콕
폭등
한산
헤밍
휘슬
##히드
##들목
##정보
##상승
##각색
들으려고
들여보내
박정호
김용준
수요자
들여다봐야
후진국
흐흐흐
벌어져서
간간히
블로거
끈질기
무의미
시애틀
가압류
거만
경련
국비
귀요
너구리
단칼
달궜
두둑
때때로
문민
물통
뭉쳤
변협
별반
병진
사슬
서윤
서커스
성토
세레
양다리
연가
우럭
위시
이킹
인석
잠바
장서
정월
조대
착실
총독부
친부모
침구
투덜
패트
함구
허영
##간호
##꼬치
##패치
##충우
에이티
중간중간
아동학
김수영
김장수
모욕죄
디스패치
리모컨
스코틀랜드
획기적으로
피크닉
그럭저럭
OO
겠는데
격파
기스
기탁
기묘
김시
김삼
놀려
농수
놔주
반등
보잉
색출
소면
송대
수트
실익
야마
외세
운도
운각
이홍
일촉
자투리
전추
짤렸
차일
최수
큐티
편승
폭설
풀뿌리
피케
항시
훌라
흡착
힐끔
##ol
##버둥
##국적
##반지
##작전
##ve
##즉발
그러구
아이즈
고민거리
조정석
뛰어놀
공포증
독서실
주무르
다수당
나와야지
레드카
이지영
정수장
여하간
부풀려
찹쌀가루
테크닉
그만둬야
마네킹
송미령
김계관
무턱대고
일촉즉발
ppl
그란
꼿꼿
논할
다선
단팥
대식
덮친
도경
말귀
말짱
모멸
묵살
믄은
박력
배철수
불멸
속편
아쿠
알갱이
어는
엮여
예라
우윤
유소년
은화
이눔
전명
전열
좌충우
짭조
차오
탄성
포병
프리스타
하경
##시디
##동무
##사각
##반장
##승차
##그네
내려보
알아봐야
다녀도
고소영
진실로
간다니까
최종훈
뒤집히
큰일날
부딪쳤
중대장
유해진
더블유에이치
양상추
자국민
죽여라
김우빈
김완선
광운대
뒤따르
클렌징
심수봉
후아유
리처드
카자흐스탄
하염없이
좌충우돌
더블유에이치오
극렬
근저
김이
꿀벌
나체
닥친
동업
또박
린데
메꾸
배현진
버벅
삼심
세작
소령
손아
솔비
스퀘어
시라
시문
애원
양키스
어구
어뢰
외가
윤여
자결
조간
참새
토핑
풍족
혜지
홍조
흘릴
##살짝
##천하
##홍철
그럴듯
기본급
기관차
살짝살짝
바이든
아저씬
수출입
들이밀
하도급
시내버스
미칠지
달아난
진수희
위임장
공예품
진해림
따돌리
알라딘
미적분
최홍만
데시벨
백민철
헤밍웨이
프리스타일
고달
광어
그은
꾸벅
내림
문승
물주
물으니까
방임
방풍
번질
병리
보나
봉기
성신
송곳
쌈디
안테나
알몸
양태
오색
외톨
월계
윤미
입항
제모
존위
타수
토너
폭소
푹푹
##시스트
##치아
##쓸이
가지런
보내온
했었을
인사말
넘어져서
계십시오
인도주의
공정거래
이하원
남겨야
편안히
기울여서
이영표
어딘데
농구장
건조증
실지로
괴로웠
상한선
무용지물
싸이코
블록버스터
부풀리
공정거래위
고해
기입
나돌
낙천
납북
내다
누른
댕이
디스코
마티스
발치
선회
숭배
심취
쏴서
암벽
야동
연천
울렁
울금
위례
일진
입소
자경
재팬
저버리
제너
제쳐
채화
추념
출병
편취
평이
해드려
홍두
후사
힘주
##두렁
##박질
국민당
냐면서
운동회
걱정거리
연구비
문화부
일어선다
계산서
공사비
크리스토
지휘부
부자연
다라기
석유공사
풀려난
변함없
대수롭
슬럼프
가관
가평
겉모습
궁색
권혁
기치
남포
단아
돌린다
따진
따오
뜨끔
바스
바이어
복심
삐져
석권
성기
신망
싹쓸이
아낙
언성
연마
용맹
우림
읽혀
임계
태반
트릭
할로
핵보
허겁
현진영
흑영
##양이
##배근
##의정
##던데
##표소
질문지
정확도
조선소
방문객
조심조심
고장나
마크롱
검정고시
움직여요
불상사
이니셜
접착제
퍼스널
살핀다
핵보유국
감마
곤경
교위
국자
나스
노림
더치
뒷얘
만질
면직
방망이
삐걱
서촌
선친
송사
송재
수재
엑셀
여죄
오금
오스카
위크
인보
자임
장호
전번
제과점
초고추장
카우
터프
프롤
홍자
활전
황토
##구장
##다닐
##용품
##필더
##문현
그러더니
한다던지
이재민
아쉬울
이정표
걸릴지
감자전
소지섭
최영광
미지수
유부녀
공문서
서대문구
앞세우
구우면
미드필더
거스르
곁들여서
실외기
최단비
엎드려서
재검토
흡혈귀
뒷얘기
걸으
검침
광기
괴한
급상승
납골
로페이
루프
물어요
미간
미백
산도
섞였
섭렵
성정
송출
숙인
쌓일
애처
역정
역공
온두
옹립
이카
이륙
인절미
일문
작위
총탄
트랜드
회귀
##밤중
안전장치
밝혀낼
국방비
준다거나
현지인
편집자
스피치
다이나
포도주
멀쩡히
무거우
벌어질지
맞대응
거침없
초년생
알렉산
온두라스
거보
괴테
권상우
김찬
노면
노심
두말
리오
맞짱
무청
미쳐서
변해야
빙글
살게요
스팸
신소
알렉스
없인
욕하
우표
인호
전곡
찌릿
처결
척박
친필
패치
피폭
허황
허투
화창
환골
흥남
힘없이
##지겁
##천만
##평론
된다며
그까짓
드라이버
연구가
제시카
실력파
인천시
들이마
붙여진
설계사
부여홍
가려움
아랫배
취득세
랜드마크
우편물
김은지
찌푸리
허겁지겁
군축
그랜
근교
기포
꾸렸
나들목
남달
낸다면
뇌리
능선
도안
독과점
뒷걸음
못나
무표
뭅니다
발버둥
벼룩
비원
수가
슬플
시유
씨이
아귀
여명
여타
오구
옥새
율무
재채기
제창
제독
졸속
진데
카터
퍼펙트
피어
화낼
##구먼
##이인
##축구
##골목
##옴표
방법론
혐의점
영국인
시사평론
카메룬
주간지
되돌아가
받아들여질
세운다
견인차
추스르
조재범
스마일
조갑제
시사평론가
강팀
건재
결격
계수
고안
구달
남원
네여
노론
다잖아
더한
돼선
등신
마도
망한다
물정
미완
발인
벼르
병가
복기
북구
불응
불바다
선로
승재
오십
왈가
우석
윤장
적진
전량
정인지
조진호
처박
태몽
테라
통념
트립
펼쳐서
혜화
힘겨운
##노래
##지휘
##카스
##고양이
##at
##it
##조개
##러져
##베트
드릴려구요
정보지
오른발
펼쳐진다
쓰러진다
어려워진
오리발
2019
넘겨야
노사연
손수호
구부리
시네마
들썩이
일용직
진두지휘
아르메니아
짭조름
결판
곰돌이
권양
귀리
근방
꿍꿍
나노
눕혀
다아
닫힌
달짝
담벼락
두두
뒤숭숭
레논
마니
문지
밋밋
베라
순기능
시누
약세
양세
엘비스
였으니
오묘
외통
용진
음미
이형
자긍
장승
진부
침상
크레이
터뜨렸
폴더
환생
##부른
##공주
##걸스
##불퉁
##퉁불퉁
##페스트
##페이스
##긍긍
생각난다
대학로
정보력
살인자
예비역
오리엔
오리고기
내보낸
넘겨졌
재수없
밀려오
기원전
다라든가
김준형
제대루
내비쳤
박태환
프리미어
전전긍긍
자그마치
째려보
가렸
겨눈
결여
고슴
고드름
골방
교만
국유
더리
독학
마황
미끄럼
변고
살찐
삼총사
섬기
쇄도
수문
싸드
에콰
연립
옥체
욜로
응당
자나
점쟁이
집현
채굴
천박
터리
페리
피팅
한승
합세
혈육
##도치
##르담
##동기
##들였
##천동
##테이
##검사
##굵직
불러다가
계신다는
가격표
광고비
광고주
마침표
가졌었
잠재우
고은주
추격전
친근감
강동구
굵직굵직
차재완
성탄절
백과사전
식료품
고슴도치
에콰도르
감췄
거린다
격돌
결탁
구마
기시
김필
내재
누른다
러서
말싸움
버팀
번화
비쌌
상조
생동
쑥대
야인
어로
오혁
울퉁불퉁
월경
잠식
존심
천진
추계
치어리
캔버스
토스
포터
풍문
행간
##지둥
##분자
##우트
##정지
##파크
이래라
못했었
협상력
여야지
점심때
만날까
산책로
떠올렸
대행수
가려져
버무려서
고영희
돌아와야
돌아다닐
건전지
사사로운
두들기
콜라보레이션
가파르
카네기
허둥지둥
미심쩍
SM
글래
독사
든데요
따옴표
로미오
모락
물회
블레
빠릅니다
빨치산
살랑
설렌
성종
외조
요즈음
위도
이쑤
잽니다
점쳐
조신
줄다리
지껄
집정
채집
초롱
클리어
피오
허약
회도
##론데
##네다
##맥주
##펜스
입니다요
그리고는
사랑채
위험천만
안전띠
둘러볼
걸어갈
오르막
도망친
공포감
건축학
바뀐다고
으려고요
이지희
로비스트
쏟아질
푸른색
해줘야
풀어낸
박경호
##볶음밥
동명이인
떠올라요
되새겨
가파른
우크라이나
겨드랑
애지중지
숨쉬기
김송희
아킬레스건
바베큐
무표정
이쑤시개
가를
건과
관망
군국
기섭
끄내
내홍
대생
땐가
리사
면발
무좀
방류
붐비
뼈대
숙부
스펀
스커트
엄숙
열애
영과
유광수
임정
전재
차고
착시
친아들
카다
카펠
탈까
태천
핑장
하리
헐리
현숙
힌두
##오빠
##변이
##불란
##느러미
자기장
찾아본
넘어질
놀라울
김치볶음밥
둘러봤
흘러내리
즐거우
미워할
아껴서
물어봐서
돌연변이
분수령
되살리
에스오에스
조중동
이코노미
집현전
객원
겸비
괍니다
구혜선
귀향
근깐
꽃뱀
나나
낙점
남사
노장
노약
녹용
는가요
도축
뒤져서
디너
따갑
바리스타
발췌
벌판
볼려
부평
비투
사와
사재
석이
선망
성도
속죄
아식
애당초
오뚜기
우애
이너
재식
재외
전보
질긴
처먹
최양
최규
최연
케플러
탕감
트랩
풀려서
하날
학당
홍경
##블로
##국사
영화인
으시오
이래든가
대책위
오이시디
붙여요
경계심
은지원
196
등산객
때려잡
박상철
휩싸여
불러일으켰
고파서
일사불란
과부하
담뱃값
시커먼
어렴풋이
수증기
노림수
오십견
개진
경애
관청
국조
권태
급물
낼지
덴데
라네
로다
마돈나
말머리
메추
밤늦
뺏어가
설왕
손재주
스윗
식자재
암말
앨리스
위너
유약
은사
인회
일벌
잦아들
재방송
정열
즈이
쳐져
키보드
포커
##니더
##설래
##뮤지
이상훈
운동량
그까는
내려요
훈련장
강력범
고추냉이
빨간불
프리츠
발라야
김진현
미용사
생태계
장갑차
주재료
건드린
성동구
슬라이드
하모니카
빅토르
다각도
보아하니
당치도
원판결
정약용
판가름
급물살
설왕설래
48
강건
경진
경범죄
국법
급감
난로
뇌사
다모
디딤
뜯어먹
문상
물방울
바꼈
부화
삽니까
상남
샤오
서자
알현
애창
엄앵
온단
원반
위궤
유창호
인강
정숙
정감
지예
체커
최해
판별
패닉
풍수
화공
환청
##다다
##식품
##상회
##슬러
##거품
대표부
위해서요
중국식
이해충돌
보도국
스타일링
크리스티
마셔라
어지러운
어지러워
동거녀
구구절
기막혀
오리지날
첨가물
췌장암
함경도
도봉구
무수히
동떨어진
일깨워
재조명
귀요미
자긍심
비투비
엄앵란
위궤양
거름
끈다
끊어진
내후
노건
대매
반동
방아
보령
비스트
빛내
뼈저리
사카
산체
석구
세미
액정
에센스
연륜
올스타
전모
탄식
행해
환각
##어냈
##뜨끈
##사상
##재원
##튼데
##갑시다
##바고
돌아온다
소비량
무기질
와이번
물어뜯
법정형
미술가
이태규
날아간
패러데이
이민호
이소라
잔디밭
이광수
고독사
일식집
에이에스엠
했다간
걸레질
굳건히
뜨끈뜨끈
하숙집
최명길
삼지연
성조기
흉부외과
가람
군민
길들여
나그네
노로
노우
댄싱
무해
발연
버르
베니스
봉변
비바람
송기
숙녀
신전
실신
아낄
오조
요점
운치
임했
장화
조부모
지고
테일러
투척
트램
편중
하이드
해코지
혼잣
홍순
환후
황폐
##간질
##자식
##OT
##큐어
시작점
아버질
이름표
아파도
##레이즈
조직법
들어와라
그래야죠
들어온다는
안내서
유치원생
보낸다는
준다든가
김태균
활성산소
엘리엇
심정지
괴롭혀
이종석
취임사
버릴까
배추김치
외로울
돌아와요
처해질
헌정사
자위권
뒤돌아보
사오니
금천구
지평선
악착같이
권양숙
가액
가책
갈림
겸사
구의
균등
길바닥
누려
대졸
대자
대했
됐을까
레트
리트
몰타
미싱
배재
벌집
본점
뽑아
산들
삼루
생후
셔터
시외
실파
쌉싸
연착
올르
외워야
이팔
장장
전란
정족
제갈
진선미
창시
철렁
팀워크
험하
##행사
##en
##방아
##댄다
##랭크
중심부
조직력
간다든지
인권위
측정기
여의치
둘러싸여
새겨져
관악산
최충수
아아아아
유라시아
피시방
동사무소
월등히
무주택자
혼잣말
간결
갇혀서
갑수
건졌
검역
겁내
격전
곱씹
나시
난해
누차
닥칠
대업
도씨
도넛
동급
둬라
들를
레진
리플
몰골
박도
백분
본가
본데요
부릅니다
비껴
사열
사투
새까
석차
선순
송호
숙모
아궁
안현수
엇다
열려서
였으나
오밤중
외지
우이
으뜸
은탁
인빈
조촐
좌시
중남
쥬스
즐비
지느러미
짜내
철통
초간
카프
칼자루
컬렉션
클났
판국
학평
##노동
##지먼트
##OU
##블루
##탄불
##빨간
생각날
공개념
투표소
연습장
라이더
데려와서
박수홍
매니지먼트
헷갈려요
갈라진
전두엽
인증서
003
정수리
다닌다는
엇갈렸
개막전
수천억
180
하수도
구로구
부드러움
도미노
김덕진
신봉선
하다못해
줄다리기
구구절절
가덕
공습
그쯤
깁스
넥슨
노루
논두렁
단양
당합니다
동대
문세
박애
배동성
불려서
비속
빗자루
사량
산데
서북
섣부른
수서
숙식
숨소리
실추
영문학
위에
인트
인혁
주우
즐긴
지랄
칠공
켤레
할증
##쿠스
##백호
##킨슨
##따위
##탱이
발표문
달라진다
기다려라
은행나무
둘러서
거라든가
김한솔
이스탄불
저항성
이수근
만지작
이소룡
인디언
땡땡이
김희중
일러스트
전광훈
윤정수
레지던트
장세진
미장원
머지않
카펠라
갑옷
겉보기
고름
고된
공시지
군고구마
귓속
김혁
김춘
꾸짖
낯익
놓였
놓쳐서
눌려
다오
독박
때린다
메우
무현
민아
보릿
뼛속
수금
스로
습하
시큰
시니어
싸매
영이
옛말
올려고
왕가
요절
위신
유별
조갯
주몽
주운
죽순
준대요
중급
진품
청진
초무침
출품
친위
탈영
합심
항균
황인
황반
##르드
##수용
##뚜껑
##펠러
봐야겠다
지켜온
몰라보
상담원
청소부
떠나보내
김지혜
신발장
건조대
설립자
초청장
물어볼까
피우진
생계비
이보시오
필터링
공산주의자
검은콩
한약재
스모킹
앤드류
공시지가
33
감호
값진
강전
거저
고침
공책
굴절
궤양
금이
기른
나팔
돌담
마가
명치
묘비
밸리
번진
변조
봄이
부칠
부감
비석
스톡
시지
앙드레
얄팍
양팔
연패
영월
오피
오붓
원초
육중
임파
장발
저도
정취
종주
중사
직언
차범
총대
축전
커스
터득
투철
파멸
함몰
항명
후안
##어물
##새끼
##파시
##탈태
##왈부
그래왔
예정일
인상깊
챙겨오
동시대
연대기
장수원
009
보리밥
콩나물국
이쁜데
부도덕
하하하하
상륙작전
전조등
어림없
박서준
커밍아웃
송창식
환골탈태
왈가왈부
내후년
근자
금요
기혼
데릴
되려
라네요
면피
명지
모월
모가지
무엄
묻어
버지
변한다
부용
스팅
억만
오므
옷가지
우현
응께
인표
잔칫
주모
집게
쭈니
체구
태리
펜타
협연
황망
희진
##비티
##AN
##현숙
아들딸
이용식
피부염
뛰어내
떨어져도
어딘가요
호주머니
텔레파시
가속도
막혀요
순찰차
조형기
어지간히
말끔히
가디언
최윤덕
진경준
조총련
마십쇼
명실상부
버팀목
스펀지
골칫
공서
구차
국문학
굿모
남주
독약
떨구
망연
먹통
박일
박쥐
백골
봉건
삼청
서유럽
성냥
수로
스매
안나
약소
연잎
오빨
완자
저혈압
적통
전갈
조바
좌승
주군
질부
타오르
패륜
팩터
혈연
호시
혼날
홈즈
흑색
##오카
##짜기
##신기
##ut
##올리
##불급
##꽂이
방송법
사진관
내려놔
넘어설
움직입니다
들어왔었
에어로
이태백
친정어머니
잊어버린
이병훈
트리플
낮춰야
시한부
동정심
도토리묵
따돌림
기보단
여상원
허경영
조봉암
불협화
와이번스
굿모닝
거진
고귀
공빈
과유
교토
군비
군자
급대
꽃가루
꿀맛
농경
다느니
데미
디게
몰살
문지르
법도
뻗쳐
사그라들
생채
세브
숨바
시제
악행
야들
어데
억측
에워
에헤
일요
자메이
제과
조한
착지
찬데
추성훈
카스트
탁상
탐탁
행두
화근
희극
##백산
##미화
##각형
##례문
##얼음
에이형
시기상조
허리띠
파란만장
스카우트
고무장갑
글씨체
금년도
부가세
서랍장
여객선
매스컴
알아차리
남해안
윤소하
자메이카
65
강훈
경적
경량
국위
급조
기브
기엔
까매
넙니다
독살
등골
딜런
딸년
맞설
모교
밤잠
별자리
보국
부나
삼부
성곽
셀룰
예절
오성
왜구
윤택
윤활
이레
이설주
인고
인젠
잡아들
저명
조순
차였
찰칵
초석
출하
커터
토란
투혼
파킹
푭니다
확확
후니
흽니다
##야마
##장머리
##고개
##제국
아이참
알려줘
인지요
그럴려고
내려온다
안전모
가정사
교통수단
성장률
이따위
아기자기
연령층
##아내리
트위스트
쫓겨날
쪼개지
갔다온
절실히
임진강
쭉쭉쭉
놀러오
오대양
가디건
끈질긴
중랑장
배부른
홍종학
출사표
불청객
가타
구세
구질
기를
끝자락
네만
노상
덕인
뚝심
리가
베껴
볼록
북로
비토
산더미
새록
소피아
쓸까
에티
역병
영위
전사자
찬장
철조
최익
토착
파가
허성
화신
##식당
##이다
##el
##안경
##꼭질
그래라
이러저러
불러올
들려줄
시어머님
지배인
박상기
불쾌감
자자자
손녀딸
캠핑카
남아프리카
일인자
카르텔
이원집정부제
인바디
켜켜이
숨바꼭질
간파
개콘
군살
굴레
꼬라지
낙제
내이
논산
단둥
대운
던져야
딜러
리차
망칠
부두
빙자
빠이
살얼음
속삭
아입니다
암모
애시
애잔
어련
역술
이판
이합
익사
잘린
전봇
정난
정금
청도
초입
치장
컨퍼런스
코스트
투석
파다
퍼트리
푸석
허태
##개치
##주머니
##파티
##봉투
언론계
행복감
누군가요
나갔으면
물러갑니다
김경준
질병관리
무거워서
중형차
재계약
번거롭
상도동
제네시스
건방진
돌려보냈
김두관
최전방
선구자
홍련화
조갯살
차범근
불협화음
전봇대
질병관리본부
관하
그라스
노와
당해야
맞받
먼데
몸짱
문극
물레
보성
순직
실언
십월
씁니까
언쟁
역차별
요식
의종
임재
입출
재빠
적셔
조려
졸려
짜지
초저
치워야
카세
털기
통이
##산맥
##부답
##원수
##해져
##에나
##길래
##암리
##꾸러기
바라기
몰라두
불법행위
생겨도
영양학
전투력
사령탑
중독자
줄어듭니다
김학용
하여간에
합쳐진
테니스장
떠오른다
오락실
명성황후
묵묵부답
멘토링
이덕철
대지진
고물상
남궁민
정육점
광진구
못생겼
글러브
송시열
윤장현
버르장머리
거참
공법
기러
깍듯
꼽혔
난사
내자
노릴
담대
데기
만납
방용
범벅
상평
샌더스
성훈
소강
숭례문
아령
앞면
염경환
완만
우비
운세
위화
일장
일거리
조향
조련
주옥
주광
찌른
추호
특채
폴링
풍덩
흉흉
흠결
##한성
##청정
##사인
에스아이
경제인
자유자재
넘어올
사무직
달려갔
졸업장
오이까
건축주
가스레인지
넘겨진
신동주
잊어버릴
달아오르
도마뱀
프라임
전도연
차인데
유태인
최루탄
우윤근
갈림길
강상
김새
꾀하
난자
네이트
니체
달랬
덮여
렛츠
매울
맹목
밀쳐
백석
변치
봉제
부으면
비와
빨아들이
암수
앨런
역점
용병
원투
은자
의금
일궈
전소
중종
클루
터닝
터진다
파하
팔로우
한림
향유
##노스
##개골
##코니
##연합
##거구
라고는
확인서
장기하
에너지원
된다면서
눈치채
소화전
전시관
이순자
0000
프라이드
합쳐져서
박종훈
이시영
터미네이터
##민주당
유무죄
겨드랑이
무임승차
거머쥐
느타리버섯
펜타곤
각박
검지
남중
넥스트
다케
돋우
동인
뒤쳐
따온
따귀
띄운
라데
마를
면포
미관
바오
변혁
비욘
씀씀
왠만
웅성
월요
임방
작아
적중
조일
졸지
중완
질린
총궐
통폐
편애
포박
현정
호동
화초
흠흠
##원숭이
##수정
##중력
##그림
들어설
보이즈
가져라
기다려도
부정행위
스타일리스트
이승기
몰래카메라
주사위
장악력
누굴까
김장훈
연두부
예선전
청량리
배고픈데
동방신기
젠틀맨
얄미운
가보세요
에이전시
디딤돌
최해산
쌉싸름
씀씀이
총궐기
각양
꾸려서
난다면
다국적
될진
로컬
류수영
만반
못다
박의
반노
배양
배열
사노
상비
상차림
설경
습지
실황
아테
아다가
언년
여비
연단
연꽃
열심
전횡
정갈
지근
진퇴
쫑긋
찹니다
측은
칩거
커져서
통후
통칭
피이
한서
항만
헌혈
혈서
효성
##비비
##나비
##부아르
##피린
후보지
가져요
작업장
빠져야
비행사
샘플링
119
일어날지
어려우실
늘어난다
소극장
아스피린
급속히
건넨다
정운찬
차재원
겨루기
주영훈
부다페스트
달짝지근
철조망
최익현
의금부
가택
가야지
개기
거수
골인
곽도원
김서
대필
대는데
디렉
명수
미트
박소연
밤길
상병
숙고
쉽사리
암표
약효
어음
왔잖아
원도
원회
위스키
일층
임태
입실
잔틴
적화
전실
정창
정겨운
중령
직영
질려고
철민
초췌
최은희
취조
친데
토르
풍등
하교
현영철
회가
휴교
##ic
##브르
##NA
##거릴
##메기
##또박
경기력
바라봅니다
예약자
아우라
전국구
올려도
둘러본다
바이브
그려야
부딪쳐
녹음실
친절히
친해질
말려들
오버랩
망설임
프라하
잊혀진
미식축구
장도연
보디가드
놓아주
재가동
페널티
연좌제
또박또박
설렌다
가려야
강명
건우
곈데
고노
교습
군내
군왕
궤변
나뻐
녹여서
니라고
도광
동하
로프
메들리
명화
방배
방편
별난
볼넷
비뚤
빅스
빙빙
서린
설리
솔라
송은이
슈트
신구
오명
오목
왕소
용성
을진
을걸
입춘
정실
최현
측천
카리
케일
테르
피울
해직
호명
흥부
희대
이런다고
엄청났
알아채
분석가
누군데요
이재은
시킬게
고용주
들려왔
김기덕
보낼까
매니큐어
가로채
심해질
무한히
머무를
자작극
우두머리
흐느끼
기네스북
모멸감
리차드
통폐합
통후추
800
개판
경운데
굵기
기선
난소
놀랜
늑장
단역
대니까
도포
물렸
미켈
반송
받으
뱃지
빨아먹
서먹
선주
소피
슈베르트
쌩쌩
완두
우야
월차
유얼
육월
정회
제격
지미
차체
천성
추동
출루
칭호
콧구멍
태왕
토미
호준
후두
##호란
##사항
##근무
##통치
##질서
##실록
##설수
들어맞
더라두
프로토
가져도
달라야
산업은행
라이징
대장균
흘러갈
김현식
계실지
미친다
부끄러워서
숙박비
돋보였
아랫집
최우수
김선영
줄어든다
눈여겨보
순두부찌개
진성준
받아쓰
수임료
하시노
CGV
고와
구자
구동
구아
군용
귀속
깎이
다졌
당길
뒤떨
모어
모둠
민물
변심
부어요
불현
샤프
소포
숭고
시당
악한
야정
어조
에유
여생
요시
유토
윤시
젠장
조아
조퇴
천신
커집니다
쾌거
킹덤
폭죽
피나
피폐
필명
헌장
호에
황원
##지막
##도리
##의지
##재해
자연재해
나간다면
일어났었
스테인
주무실
김용민
김민종
참모총장
동해안
노총각
일으킨다
스타트렉
엄지손
김준현
어우러져서
정은지
걷어차
갈렸
광선
나눕
납세
노마
노소영
다예
다퉜
도식
동주
둔감
뒷배
들뜬
디브이
레이트
리즈
막연히
메꿔
모노
모쪼록
무뎌
물거품
발하
봉우리
북송
블룸
비기
사악
순결
숲길
영란
워밍
윤후
이튿
잔머리
절세
지레
처칠
최남
큼지막
토탈
헤일
확전
확증
##기지
##마르
##란도
##샤인
##읍니다
된다든가
소리치
특별시
기준점
시원찮
가시나
이동해
은행장
거래량
생길지
부딪혀서
느낀다고
김민전
김상일
가져와라
렌트카
해줄게
런닝맨
한석규
소선거구
프로그래머
흥얼거리
조진웅
전명규
워밍업
이튿날
각시
거뜬
고주
구가
나부
내서
논다
뉴딜
니은
담낭
동진
등원
떠넘
로워요
마운드
박박
방음
산양
서호
수류
신신
쌈밥
알싸
어쿠
여한
여울
오역
완장
원액
윕니다
일로
저온
정과
조평
초딩
최첨
테타
퇴학
표범
푼다
허비
허드
홍현희
횡설수
훈제
흘려서
##루엔
##대상
##야들
##마늄
##호텔
##거든
어머닐
기관총
밝혀낸
도로는
직업인
물리력
적당량
비상사태
김지예
시시비비
김미나
##사이신
김창선
서인국
프론트
조강지처
선우용
양천구
세면대
안젤리나
카시트
송종국
야들야들
주광덕
최첨단
횡설수설
가히
결근
구년
꺼주
꿀꺽
날더러
늘린
로빈
마더
매국
무반
물길
미로
밑줄
발란스
변성
불친
사초
서이
선샤인
성행
속물
수안
숙종
스르르
쓸개
씽크
열도
오당
으래
임성
입속
잎사
잡아들이
장로
증설
쪽쪽
천거
치졸
콩밥
투박
파충
화실
활로
후일
희롱
##로호
##토스
##준열
##랑어
##바스
##바겐
그런다는
기다려서
지원서
이루라
바람둥이
도와야
스트립
바꿔치기
수술비
김현종
못할까
차관보
주관식
버무린
떨어뜨린
정용화
센트럴
게을리
따가운
정준하
고니시
송유인
신승훈
스위트룸
유목민
이필모
웅크리
매서운
윤여준
과유불급
불친절
강판
기교
길렀
나레이션
놨더니
다혈
단란
덜컹
뒷목
바코드
배연정
부영
상두
수북
시무
아첨
여린
오퍼
용두
으먼
은산
저술
적도
쩔쩔
총사
캡처
캡사이신
타선
타원
편해서
품명
해칠
햄스터
활자
##지책
##데리
##주름
##호테
##우산
##강정
##평생
##게임
한다고요
전체주의
전략가
밝혀라
다리미
사기극
문희옥
브라우
뮤직쇼
폭탄주
원자로
뜨거워서
꼬리표
기차역
맡겨서
이순재
도박장
갖춰서
스파크
스파이크
끌어들여서
플라자
